{
  "version": "1.0",
  "truncation": null,
  "padding": null,
  "added_tokens": [
    {
      "id": 0,
      "content": "[UNK]",
      "single_word": false,
      "lstrip": false,
      "rstrip": false,
      "normalized": false,
      "special": true
    },
    {
      "id": 1,
      "content": "[PAD]",
      "single_word": false,
      "lstrip": false,
      "rstrip": false,
      "normalized": false,
      "special": true
    },
    {
      "id": 2,
      "content": "[CLS]",
      "single_word": false,
      "lstrip": false,
      "rstrip": false,
      "normalized": false,
      "special": true
    },
    {
      "id": 3,
      "content": "[SEP]",
      "single_word": false,
      "lstrip": false,
      "rstrip": false,
      "normalized": false,
      "special": true
    },
    {
      "id": 4,
      "content": "[MASK]",
      "single_word": false,
      "lstrip": false,
      "rstrip": false,
      "normalized": false,
      "special": true
    }
  ],
  "normalizer": {
    "type": "Sequence",
    "normalizers": [
      {
        "type": "Lowercase"
      },
      {
        "type": "NFKD"
      }
    ]
  },
  "pre_tokenizer": {
    "type": "Whitespace"
  },
  "post_processor": {
    "type": "TemplateProcessing",
    "single": [
      {
        "SpecialToken": {
          "id": "[CLS]",
          "type_id": 0
        }
      },
      {
        "Sequence": {
          "id": "A",
          "type_id": 0
        }
      },
      {
        "SpecialToken": {
          "id": "[SEP]",
          "type_id": 0
        }
      }
    ],
    "pair": [
      {
        "SpecialToken": {
          "id": "[CLS]",
          "type_id": 0
        }
      },
      {
        "Sequence": {
          "id": "A",
          "type_id": 0
        }
      },
      {
        "SpecialToken": {
          "id": "[SEP]",
          "type_id": 0
        }
      },
      {
        "Sequence": {
          "id": "B",
          "type_id": 1
        }
      },
      {
        "SpecialToken": {
          "id": "[SEP]",
          "type_id": 1
        }
      }
    ],
    "special_tokens": {
      "[CLS]": {
        "id": "[CLS]",
        "ids": [
          2
        ],
        "tokens": [
          "[CLS]"
        ]
      },
      "[SEP]": {
        "id": "[SEP]",
        "ids": [
          3
        ],
        "tokens": [
          "[SEP]"
        ]
      }
    }
  },
  "decoder": {
    "type": "WordPiece",
    "prefix": "##",
    "cleanup": true
  },
  "model": {
    "type": "WordPiece",
    "unk_token": "[UNK]",
    "continuing_subword_prefix": "##",
    "max_input_chars_per_word": 100,
    "vocab": {
      "[UNK]": 0,
      "[PAD]": 1,
      "[CLS]": 2,
      "[SEP]": 3,
      "[MASK]": 4,
      "\u0000": 5,
      "#": 6,
      "$": 7,
      "%": 8,
      "&": 9,
      "'": 10,
      "(": 11,
      ")": 12,
      "*": 13,
      "+": 14,
      ",": 15,
      "-": 16,
      ".": 17,
      "/": 18,
      "0": 19,
      "1": 20,
      "2": 21,
      "3": 22,
      "4": 23,
      "5": 24,
      "6": 25,
      "7": 26,
      "8": 27,
      "9": 28,
      "<": 29,
      "=": 30,
      ">": 31,
      "@": 32,
      "M": 33,
      "T": 34,
      "[": 35,
      "\\": 36,
      "]": 37,
      "^": 38,
      "_": 39,
      "`": 40,
      "a": 41,
      "b": 42,
      "c": 43,
      "d": 44,
      "e": 45,
      "f": 46,
      "g": 47,
      "h": 48,
      "i": 49,
      "j": 50,
      "k": 51,
      "l": 52,
      "m": 53,
      "n": 54,
      "o": 55,
      "p": 56,
      "q": 57,
      "r": 58,
      "s": 59,
      "t": 60,
      "u": 61,
      "v": 62,
      "w": 63,
      "x": 64,
      "y": 65,
      "z": 66,
      "{": 67,
      "|": 68,
      "}": 69,
      "~": 70,
      "¡": 71,
      "¤": 72,
      "®": 73,
      "·": 74,
      "¿": 75,
      "×": 76,
      "̀": 77,
      "́": 78,
      "̂": 79,
      "̃": 80,
      "̄": 81,
      "̇": 82,
      "̈": 83,
      "̊": 84,
      "̣": 85,
      "̧": 86,
      "َ": 87,
      "​": 88,
      "‌": 89,
      "–": 90,
      "’": 91,
      "“": 92,
      "”": 93,
      "•": 94,
      "€": 95,
      "₹": 96,
      "⃣": 97,
      "←": 98,
      "↑": 99,
      "→": 100,
      "⊙": 101,
      "⏰": 102,
      "##a": 103,
      "##m": 104,
      "##u": 105,
      "##n": 106,
      "##d": 107,
      "##e": 108,
      "##r": 109,
      "##0": 110,
      "##h": 111,
      "##l": 112,
      "##o": 113,
      "##k": 114,
      "##g": 115,
      "##i": 116,
      "##1": 117,
      "##8": 118,
      "##s": 119,
      "##t": 120,
      "##c": 121,
      "##p": 122,
      "##v": 123,
      "##j": 124,
      "##y": 125,
      "##z": 126,
      "##x": 127,
      "##5": 128,
      "##b": 129,
      "##_": 130,
      "##6": 131,
      "##2": 132,
      "##4": 133,
      "##w": 134,
      "##f": 135,
      "##q": 136,
      "##\u0000": 137,
      "##/": 138,
      "##3": 139,
      "##7": 140,
      "##̀": 141,
      "###": 142,
      "##9": 143,
      "##̂": 144,
      "##́": 145,
      "##*": 146,
      "##,": 147,
      "##.": 148,
      "##¿": 149,
      "##-": 150,
      "##]": 151,
      "##)": 152,
      "##%": 153,
      "##$": 154,
      "##̃": 155,
      "##َ": 156,
      "##⃣": 157,
      "##=": 158,
      "##@": 159,
      "##̧": 160,
      "##̄": 161,
      "##(": 162,
      "##'": 163,
      "##→": 164,
      "##₹": 165,
      "##̇": 166,
      "##<": 167,
      "##\\": 168,
      "##̊": 169,
      "##T": 170,
      "##M": 171,
      "##¡": 172,
      "##+": 173,
      "##€": 174,
      "##̈": 175,
      "##|": 176,
      "##>": 177,
      "##`": 178,
      "##̣": 179,
      "##←": 180,
      "##^": 181,
      "##ar": 182,
      "##ha": 183,
      "##ai": 184,
      "##an": 185,
      "##hi": 186,
      "hai": 187,
      "##at": 188,
      "##al": 189,
      "ki": 190,
      "ka": 191,
      "ko": 192,
      "##ya": 193,
      "##ak": 194,
      "##he": 195,
      "##di": 196,
      "ho": 197,
      "##am": 198,
      "kar": 199,
      "me": 200,
      "##ye": 201,
      "de": 202,
      "##in": 203,
      "na": 204,
      "ke": 205,
      "to": 206,
      "##ta": 207,
      "ba": 208,
      "##ur": 209,
      "##ne": 210,
      "##te": 211,
      "##na": 212,
      "##ho": 213,
      "se": 214,
      "ja": 215,
      "##is": 216,
      "sa": 217,
      "ra": 218,
      "##um": 219,
      "##\u0000\u0000": 220,
      "##ad": 221,
      "##hu": 222,
      "##ti": 223,
      "##har": 224,
      "##on": 225,
      "##er": 226,
      "##ga": 227,
      "##ch": 228,
      "##sh": 229,
      "in": 230,
      "ye": 231,
      "aa": 232,
      "nahi": 233,
      "cha": 234,
      "##le": 235,
      "##ge": 236,
      "ne": 237,
      "lo": 238,
      "bhi": 239,
      "hi": 240,
      "mo": 241,
      "aur": 242,
      "##re": 243,
      "bha": 244,
      "ma": 245,
      "##tan": 246,
      "ab": 247,
      "##ik": 248,
      "##la": 249,
      "##ir": 250,
      "ap": 251,
      "##se": 252,
      "##li": 253,
      "pak": 254,
      "##da": 255,
      "ku": 256,
      "mu": 257,
      "tum": 258,
      "ha": 259,
      "kya": 260,
      "kr": 261,
      "is": 262,
      "bo": 263,
      "modi": 264,
      "ga": 265,
      "##\u0000\u0000\u0000\u0000": 266,
      "##un": 267,
      "log": 268,
      "he": 269,
      "jo": 270,
      "##istan": 271,
      "mar": 272,
      "##han": 273,
      "ban": 274,
      "or": 275,
      "nhi": 276,
      "desh": 277,
      "##ke": 278,
      "pakistan": 279,
      "##en": 280,
      "li": 281,
      "##or": 282,
      "##wa": 283,
      "par": 284,
      "be": 285,
      "##dia": 286,
      "pe": 287,
      "pa": 288,
      "le": 289,
      "di": 290,
      "la": 291,
      "##ata": 292,
      "ya": 293,
      "##ss": 294,
      "kuch": 295,
      "kha": 296,
      "##ki": 297,
      "##ra": 298,
      "##ale": 299,
      "ji": 300,
      "sab": 301,
      "aap": 302,
      "chu": 303,
      "##ni": 304,
      "##gi": 305,
      "##ind": 306,
      "..": 307,
      "##ko": 308,
      "hu": 309,
      "##are": 310,
      "##si": 311,
      "ham": 312,
      "##ka": 313,
      "koi": 314,
      "##kar": 315,
      "bhai": 316,
      "ek": 317,
      "hind": 318,
      "do": 319,
      "bj": 320,
      "rahe": 321,
      "tu": 322,
      "bjp": 323,
      "##ala": 324,
      "##ri": 325,
      "mai": 326,
      "##ab": 327,
      "##de": 328,
      "hain": 329,
      "su": 330,
      "wo": 331,
      "ter": 332,
      "un": 333,
      "sam": 334,
      "liye": 335,
      "jai": 336,
      "raha": 337,
      "##sa": 338,
      "tha": 339,
      "hum": 340,
      "##oo": 341,
      "sar": 342,
      "mi": 343,
      "an": 344,
      "ky": 345,
      "bol": 346,
      "##00": 347,
      "us": 348,
      "##ate": 349,
      "dek": 350,
      "##us": 351,
      "##me": 352,
      "##ali": 353,
      "cho": 354,
      "sir": 355,
      "##\u0000\u0000\u0000\u0000\u0000\u0000\u0000\u0000": 356,
      "jan": 357,
      "wa": 358,
      "re": 359,
      "##ath": 360,
      "##wan": 361,
      "ar": 362,
      "india": 363,
      "mus": 364,
      "##nge": 365,
      "co": 366,
      "##ara": 367,
      "##cha": 368,
      "##ro": 369,
      "ag": 370,
      "##ee": 371,
      "##st": 372,
      "##alo": 373,
      "sha": 374,
      "baat": 375,
      "man": 376,
      "##ul": 377,
      "##ty": 378,
      "tak": 379,
      "##ja": 380,
      "##ati": 381,
      "po": 382,
      "##and": 383,
      "con": 384,
      "ni": 385,
      "##ari": 386,
      "##lo": 387,
      "hoga": 388,
      "apne": 389,
      "khu": 390,
      "##hiye": 391,
      "kam": 392,
      "bad": 393,
      "##my": 394,
      "##ji": 395,
      "so": 396,
      "bhar": 397,
      "sak": 398,
      "##gre": 399,
      "kiya": 400,
      "go": 401,
      "karo": 402,
      "hindu": 403,
      "dik": 404,
      "army": 405,
      "kab": 406,
      "toh": 407,
      "##ane": 408,
      "ais": 409,
      "har": 410,
      "jaye": 411,
      "##cho": 412,
      "jab": 413,
      "##lim": 414,
      "##ana": 415,
      "it": 416,
      "bi": 417,
      "jawan": 418,
      "chahiye": 419,
      "muslim": 420,
      "congre": 421,
      "apni": 422,
      "##ut": 423,
      "sahi": 424,
      "media": 425,
      "the": 426,
      "diya": 427,
      "##ma": 428,
      "##ent": 429,
      "##ing": 430,
      "logo": 431,
      "bat": 432,
      "hota": 433,
      "##--": 434,
      "##haha": 435,
      "##yo": 436,
      "sarkar": 437,
      "vo": 438,
      "sirf": 439,
      "##inda": 440,
      "##ce": 441,
      "##ba": 442,
      "ro": 443,
      "din": 444,
      "##tion": 445,
      "##dian": 446,
      "agar": 447,
      "new": 448,
      "thi": 449,
      "##hle": 450,
      "mein": 451,
      "congress": 452,
      "pr": 453,
      "##as": 454,
      "mat": 455,
      "dekh": 456,
      "kut": 457,
      "lag": 458,
      "tab": 459,
      "ac": 460,
      "rak": 461,
      "##hut": 462,
      "news": 463,
      "##to": 464,
      "##mi": 465,
      "kisi": 466,
      "wale": 467,
      "gaya": 468,
      "and": 469,
      "tumhar": 470,
      "karte": 471,
      "pai": 472,
      "indian": 473,
      "##aa": 474,
      "yeh": 475,
      "##man": 476,
      "##yi": 477,
      "pad": 478,
      "bar": 479,
      "pur": 480,
      "dikha": 481,
      "##\u0000\u0000\u0000\u0000\u0000\u0000\u0000\u0000\u0000\u0000\u0000\u0000\u0000\u0000\u0000\u0000": 482,
      "rhe": 483,
      "st": 484,
      "bho": 485,
      "chal": 486,
      "com": 487,
      "sale": 488,
      "##mir": 489,
      "maa": 490,
      "jis": 491,
      "bhe": 492,
      "##ll": 493,
      "kyu": 494,
      "kit": 495,
      "##aj": 496,
      "kaha": 497,
      "aaj": 498,
      "karne": 499,
      "hamare": 500,
      "##sha": 501,
      "kare": 502,
      "main": 503,
      "##ed": 504,
      "##hir": 505,
      "ch": 506,
      "neta": 507,
      "##ment": 508,
      "##vi": 509,
      "##ani": 510,
      "##uk": 511,
      "up": 512,
      "##ic": 513,
      "fir": 514,
      "##ter": 515,
      "raj": 516,
      "ghar": 517,
      "tm": 518,
      "##ot": 519,
      "rahi": 520,
      "rha": 521,
      "sath": 522,
      "kash": 523,
      "pu": 524,
      "gaye": 525,
      "chuti": 526,
      "pakistani": 527,
      "mad": 528,
      "mil": 529,
      "hm": 530,
      "##ap": 531,
      "##ve": 532,
      "mul": 533,
      "##ay": 534,
      "ak": 535,
      "##do": 536,
      "##hte": 537,
      "gand": 538,
      "##pp": 539,
      "hua": 540,
      "##ud": 541,
      "##ly": 542,
      "vi": 543,
      "##th": 544,
      "tere": 545,
      "##jhe": 546,
      "bana": 547,
      "kaam": 548,
      "bhak": 549,
      "teri": 550,
      "ninda": 551,
      "bharat": 552,
      "per": 553,
      "abhi": 554,
      "##enge": 555,
      "apna": 556,
      "khud": 557,
      "jaise": 558,
      "nik": 559,
      "tho": 560,
      "##dar": 561,
      "chi": 562,
      "##ain": 563,
      "##der": 564,
      "pm": 565,
      "lad": 566,
      "kis": 567,
      "kashmir": 568,
      "##wal": 569,
      "pata": 570,
      "janta": 571,
      "dhar": 572,
      "bas": 573,
      "da": 574,
      "##ami": 575,
      "##hta": 576,
      "##che": 577,
      "karna": 578,
      "bhag": 579,
      "nai": 580,
      "gov": 581,
      "bak": 582,
      "##tt": 583,
      "jawa": 584,
      "sur": 585,
      "##il": 586,
      "##ck": 587,
      "shar": 588,
      "##war": 589,
      "band": 590,
      "##ike": 591,
      "gal": 592,
      "party": 593,
      "chod": 594,
      "sal": 595,
      "yo": 596,
      "##va": 597,
      "##hy": 598,
      "gad": 599,
      "sala": 600,
      "sb": 601,
      "bahut": 602,
      "am": 603,
      "san": 604,
      "sun": 605,
      "lek": 606,
      "gya": 607,
      "dal": 608,
      "nam": 609,
      "no": 610,
      "ti": 611,
      "##ake": 612,
      "abe": 613,
      "000": 614,
      "are": 615,
      "maar": 616,
      "##tha": 617,
      "##bi": 618,
      "kro": 619,
      "dena": 620,
      "##ist": 621,
      "poli": 622,
      "dar": 623,
      "jee": 624,
      "##ek": 625,
      "dun": 626,
      "lekin": 627,
      "##chod": 628,
      "walo": 629,
      "##aise": 630,
      "##za": 631,
      "hahaha": 632,
      "##hna": 633,
      "bc": 634,
      "##san": 635,
      "wala": 636,
      "chup": 637,
      "ta": 638,
      "bata": 639,
      "##----": 640,
      "ghu": 641,
      "##iya": 642,
      "##pe": 643,
      "pehle": 644,
      "aisa": 645,
      "##ol": 646,
      "pat": 647,
      "phir": 648,
      "kabhi": 649,
      "hoti": 650,
      "tara": 651,
      "fa": 652,
      "##es": 653,
      "hindus": 654,
      "samaj": 655,
      "56": 656,
      "gu": 657,
      "kat": 658,
      "aise": 659,
      "ad": 660,
      "##hr": 661,
      "hote": 662,
      "sena": 663,
      "te": 664,
      "##ction": 665,
      "jata": 666,
      "pi": 667,
      "si": 668,
      "##hen": 669,
      "##bar": 670,
      "laga": 671,
      "itna": 672,
      "al": 673,
      "kho": 674,
      "khan": 675,
      "baar": 676,
      "##ish": 677,
      "khat": 678,
      "salo": 679,
      "baap": 680,
      "jao": 681,
      "liya": 682,
      "##gal": 683,
      "##,,": 684,
      "kyo": 685,
      "chor": 686,
      "pro": 687,
      "##ht": 688,
      "kon": 689,
      "time": 690,
      "du": 691,
      "##yada": 692,
      "karta": 693,
      "jaa": 694,
      "hindustan": 695,
      "bur": 696,
      "je": 697,
      "mare": 698,
      "sakta": 699,
      "##yega": 700,
      "##ine": 701,
      "jawab": 702,
      "20": 703,
      "naam": 704,
      "baad": 705,
      "jayega": 706,
      "##nd": 707,
      "##bha": 708,
      "samj": 709,
      "vote": 710,
      "tr": 711,
      "ker": 712,
      "##ort": 713,
      "##shi": 714,
      "##chi": 715,
      "kutte": 716,
      "chutiya": 717,
      "##fi": 718,
      "##hat": 719,
      "##lega": 720,
      "soch": 721,
      "##lhi": 722,
      "kej": 723,
      "##ation": 724,
      "tumhari": 725,
      "che": 726,
      "woh": 727,
      "galat": 728,
      "dus": 729,
      "##==": 730,
      "##andi": 731,
      "##heed": 732,
      "##cal": 733,
      "post": 734,
      "##\u0000\u0000\u0000\u0000\u0000\u0000\u0000\u0000\u0000\u0000\u0000\u0000\u0000\u0000\u0000\u0000\u0000\u0000\u0000\u0000\u0000\u0000\u0000\u0000\u0000\u0000\u0000\u0000\u0000\u0000\u0000\u0000": 735,
      "##ng": 736,
      "musal": 737,
      "sakte": 738,
      "##gar": 739,
      "delhi": 740,
      "suar": 741,
      "tera": 742,
      "bhakt": 743,
      "saal": 744,
      "ach": 745,
      "denge": 746,
      "nd": 747,
      "sing": 748,
      "str": 749,
      "##ry": 750,
      "##ina": 751,
      "##liye": 752,
      "unke": 753,
      "aj": 754,
      "atan": 755,
      "use": 756,
      "##kh": 757,
      "##it": 758,
      "##dh": 759,
      "dete": 760,
      "as": 761,
      "krte": 762,
      "sat": 763,
      "war": 764,
      "##hn": 765,
      "##char": 766,
      "##ang": 767,
      "##log": 768,
      "vide": 769,
      "at": 770,
      "ele": 771,
      "##tv": 772,
      "jawano": 773,
      "don": 774,
      "nak": 775,
      "maro": 776,
      "ghus": 777,
      "acha": 778,
      "on": 779,
      "##ci": 780,
      "shi": 781,
      "##yan": 782,
      "beta": 783,
      "kitne": 784,
      "madar": 785,
      "//": 786,
      "bs": 787,
      "bai": 788,
      "jar": 789,
      "jal": 790,
      "sik": 791,
      "##je": 792,
      "hona": 793,
      "##lah": 794,
      "yaha": 795,
      "jit": 796,
      "htt": 797,
      "lik": 798,
      "##her": 799,
      "mere": 800,
      "mara": 801,
      "bus": 802,
      "of": 803,
      "bor": 804,
      "dekho": 805,
      "lagta": 806,
      "http": 807,
      "jb": 808,
      "kum": 809,
      "##pa": 810,
      "inch": 811,
      "isi": 812,
      "bu": 813,
      "##os": 814,
      "pahle": 815,
      "election": 816,
      "kal": 817,
      "hogi": 818,
      "krne": 819,
      "kejri": 820,
      "bhu": 821,
      "khi": 822,
      "##ah": 823,
      "##hne": 824,
      "hone": 825,
      "##ade": 826,
      "tumhare": 827,
      "100": 828,
      "##nt": 829,
      "##hot": 830,
      "yahi": 831,
      "10": 832,
      "pl": 833,
      "kia": 834,
      "sach": 835,
      "hal": 836,
      "karke": 837,
      "mera": 838,
      "saale": 839,
      "kuchh": 840,
      "tarah": 841,
      "char": 842,
      "ge": 843,
      "##bad": 844,
      "##had": 845,
      "##ada": 846,
      "ndtv": 847,
      "aat": 848,
      "####": 849,
      "muh": 850,
      "bola": 851,
      "hue": 852,
      "nikal": 853,
      "dharm": 854,
      "##ash": 855,
      "##lam": 856,
      "gye": 857,
      "##ct": 858,
      "bhej": 859,
      "musalman": 860,
      "border": 861,
      "sho": 862,
      "es": 863,
      "mc": 864,
      "sk": 865,
      "##bli": 866,
      "raho": 867,
      "mujhe": 868,
      "politi": 869,
      "singh": 870,
      "va": 871,
      "unko": 872,
      "fo": 873,
      "pta": 874,
      "##mp": 875,
      "##ega": 876,
      "##hab": 877,
      "jaan": 878,
      "iss": 879,
      "strike": 880,
      "kumar": 881,
      "rhi": 882,
      "gaddar": 883,
      "jyada": 884,
      "kre": 885,
      "kaise": 886,
      "utha": 887,
      "##gical": 888,
      "hame": 889,
      "sain": 890,
      "tar": 891,
      "##ror": 892,
      "pura": 893,
      "kitna": 894,
      "but": 895,
      "ex": 896,
      "khar": 897,
      "pra": 898,
      "sp": 899,
      "chala": 900,
      "supp": 901,
      "publi": 902,
      "khatam": 903,
      "ju": 904,
      "##up": 905,
      "##yar": 906,
      "##unt": 907,
      "uske": 908,
      "mal": 909,
      "##rat": 910,
      "uska": 911,
      "fek": 912,
      "##mat": 913,
      "##yon": 914,
      "inko": 915,
      "##wadi": 916,
      "##tu": 917,
      "jay": 918,
      "chan": 919,
      "duniya": 920,
      "en": 921,
      "gay": 922,
      "pagal": 923,
      "itni": 924,
      "gover": 925,
      "sainik": 926,
      "ev": 927,
      "hy": 928,
      "hat": 929,
      "nehi": 930,
      "pas": 931,
      "son": 932,
      "saath": 933,
      "far": 934,
      "sh": 935,
      "##oor": 936,
      "##zi": 937,
      "##fa": 938,
      "gayi": 939,
      "tujhe": 940,
      "##ood": 941,
      "usko": 942,
      "gai": 943,
      "kb": 944,
      "aaye": 945,
      "gali": 946,
      "ram": 947,
      "kadi": 948,
      "terror": 949,
      "surgical": 950,
      "kejriwal": 951,
      "gi": 952,
      "kan": 953,
      "kahi": 954,
      "dene": 955,
      "agr": 956,
      "paisa": 957,
      "sm": 958,
      "kyun": 959,
      "khe": 960,
      "sare": 961,
      "say": 962,
      "##was": 963,
      "pass": 964,
      "shaheed": 965,
      "ala": 966,
      "wor": 967,
      "##ny": 968,
      "##tar": 969,
      "harami": 970,
      "bhos": 971,
      "201": 972,
      "fai": 973,
      "gir": 974,
      "rss": 975,
      "wali": 976,
      "##ase": 977,
      "##iye": 978,
      "govern": 979,
      "cm": 980,
      "dho": 981,
      "fil": 982,
      "min": 983,
      "##ank": 984,
      "karenge": 985,
      "mei": 986,
      "dil": 987,
      "chut": 988,
      "jin": 989,
      "lage": 990,
      "comment": 991,
      "aad": 992,
      "age": 993,
      "kaun": 994,
      "##nel": 995,
      "logon": 996,
      "yaad": 997,
      "sub": 998,
      "dekha": 999,
      "kutta": 1000,
      "paida": 1001,
      "yogi": 1002,
      "public": 1003,
      "bna": 1004,
      "for": 1005,
      "##mo": 1006,
      "sabse": 1007,
      "govt": 1008,
      "allah": 1009,
      "chahe": 1010,
      "##ree": 1011,
      "mas": 1012,
      "mila": 1013,
      "government": 1014,
      "##ama": 1015,
      "bacha": 1016,
      "marne": 1017,
      "anna": 1018,
      "action": 1019,
      "dono": 1020,
      "gha": 1021,
      "hn": 1022,
      "mata": 1023,
      "##dha": 1024,
      "kahan": 1025,
      "##uri": 1026,
      "see": 1027,
      "abp": 1028,
      "samne": 1029,
      "waha": 1030,
      "badla": 1031,
      "video": 1032,
      "aata": 1033,
      "lg": 1034,
      "##kat": 1035,
      "##van": 1036,
      "##yad": 1037,
      "##akar": 1038,
      "des": 1039,
      "chale": 1040,
      "job": 1041,
      "itne": 1042,
      "bare": 1043,
      "##kha": 1044,
      "##tri": 1045,
      "mile": 1046,
      "khila": 1047,
      "jate": 1048,
      "##oge": 1049,
      "hay": 1050,
      "modiji": 1051,
      "ri": 1052,
      "##mb": 1053,
      "##dhar": 1054,
      "deta": 1055,
      "##und": 1056,
      "lena": 1057,
      "diye": 1058,
      "goli": 1059,
      "evm": 1060,
      "auk": 1061,
      "hath": 1062,
      "jum": 1063,
      "##ble": 1064,
      "##diya": 1065,
      "##ister": 1066,
      "maul": 1067,
      "sahid": 1068,
      "az": 1069,
      "gar": 1070,
      "wal": 1071,
      "##no": 1072,
      "##du": 1073,
      "##shan": 1074,
      "##the": 1075,
      "##hub": 1076,
      "insan": 1077,
      "bank": 1078,
      "sabhi": 1079,
      "aapko": 1080,
      "hui": 1081,
      "au": 1082,
      "##aki": 1083,
      "jaga": 1084,
      "inki": 1085,
      "app": 1086,
      "yaar": 1087,
      "khabar": 1088,
      "unki": 1089,
      "wah": 1090,
      "atank": 1091,
      ",,,": 1092,
      "af": 1093,
      "aye": 1094,
      "bik": 1095,
      "kh": 1096,
      "mn": 1097,
      "tk": 1098,
      "##ef": 1099,
      "bach": 1100,
      "nahin": 1101,
      "isliye": 1102,
      "marna": 1103,
      "hamari": 1104,
      "jeet": 1105,
      "terrorist": 1106,
      "aul": 1107,
      "uski": 1108,
      "bil": 1109,
      "puri": 1110,
      ",,": 1111,
      "kur": 1112,
      "lal": 1113,
      "krna": 1114,
      "hey": 1115,
      "chho": 1116,
      "kai": 1117,
      "##ue": 1118,
      "##ans": 1119,
      "bole": 1120,
      "##--------": 1121,
      "channel": 1122,
      "had": 1123,
      "bada": 1124,
      "##hone": 1125,
      "hamara": 1126,
      "##hubali": 1127,
      "pic": 1128,
      "##id": 1129,
      "##fe": 1130,
      "aage": 1131,
      "bhagwan": 1132,
      "baki": 1133,
      "amer": 1134,
      "tb": 1135,
      "yar": 1136,
      "zinda": 1137,
      "##cs": 1138,
      "##be": 1139,
      "##ant": 1140,
      "bahar": 1141,
      "baba": 1142,
      "reh": 1143,
      "karega": 1144,
      "maulana": 1145,
      "bn": 1146,
      "bh": 1147,
      "ve": 1148,
      "##zz": 1149,
      "karwa": 1150,
      "##uru": 1151,
      "##tiya": 1152,
      "islam": 1153,
      "gaand": 1154,
      "count": 1155,
      "mulle": 1156,
      "samajh": 1157,
      "americ": 1158,
      "aam": 1159,
      "hr": 1160,
      "mur": 1161,
      "##hul": 1162,
      "isko": 1163,
      "chuna": 1164,
      "wahi": 1165,
      "madarchod": 1166,
      "jho": 1167,
      "randi": 1168,
      "##od": 1169,
      "##gh": 1170,
      "kay": 1171,
      "dima": 1172,
      "jane": 1173,
      "aukat": 1174,
      "aulad": 1175,
      "bhut": 1176,
      "jati": 1177,
      "##af": 1178,
      "##kul": 1179,
      "##per": 1180,
      "##jh": 1181,
      "bahubali": 1182,
      "aisi": 1183,
      "comp": 1184,
      "mulk": 1185,
      "dharam": 1186,
      "support": 1187,
      "feku": 1188,
      "12": 1189,
      "dum": 1190,
      "vir": 1191,
      "##ld": 1192,
      "##yenge": 1193,
      "bew": 1194,
      "##oot": 1195,
      "chutiye": 1196,
      "police": 1197,
      "naks": 1198,
      "sy": 1199,
      "##**": 1200,
      "honge": 1201,
      "naa": 1202,
      "inke": 1203,
      "bhad": 1204,
      "##kaar": 1205,
      "bolne": 1206,
      "jana": 1207,
      "haram": 1208,
      "##====": 1209,
      "##blem": 1210,
      "gho": 1211,
      "##uf": 1212,
      "##ia": 1213,
      "##zar": 1214,
      "##we": 1215,
      "dega": 1216,
      "badi": 1217,
      "##ero": 1218,
      "##lab": 1219,
      "##ket": 1220,
      "khane": 1221,
      "unhe": 1222,
      "bolo": 1223,
      "bolte": 1224,
      "waq": 1225,
      "##rohi": 1226,
      "bura": 1227,
      "america": 1228,
      "##co": 1229,
      "##ham": 1230,
      "rah": 1231,
      "him": 1232,
      "lekar": 1233,
      "kyon": 1234,
      "kutto": 1235,
      "puch": 1236,
      "problem": 1237,
      "##\u0000\u0000\u0000\u0000\u0000\u0000\u0000\u0000\u0000\u0000\u0000\u0000\u0000\u0000\u0000\u0000\u0000\u0000\u0000\u0000\u0000\u0000\u0000\u0000\u0000\u0000\u0000\u0000\u0000\u0000\u0000\u0000\u0000\u0000\u0000\u0000\u0000\u0000\u0000\u0000\u0000\u0000\u0000\u0000\u0000\u0000\u0000\u0000\u0000\u0000\u0000\u0000\u0000\u0000\u0000\u0000\u0000\u0000\u0000\u0000\u0000\u0000\u0000\u0000": 1238,
      "film": 1239,
      "19": 1240,
      "wi": 1241,
      "##ver": 1242,
      "sharm": 1243,
      "jarur": 1244,
      "chara": 1245,
      "fat": 1246,
      "gyi": 1247,
      "thy": 1248,
      "##kr": 1249,
      "##bo": 1250,
      "##wer": 1251,
      "kas": 1252,
      "##ney": 1253,
      "##hari": 1254,
      "aaya": 1255,
      "humare": 1256,
      "bhosdi": 1257,
      "id": 1258,
      "mr": 1259,
      "##az": 1260,
      "##ste": 1261,
      "##pal": 1262,
      "##port": 1263,
      "##art": 1264,
      "bade": 1265,
      "maj": 1266,
      "iska": 1267,
      "lete": 1268,
      "bolta": 1269,
      "##jay": 1270,
      "thik": 1271,
      "pure": 1272,
      "guj": 1273,
      "bilkul": 1274,
      "bud": 1275,
      "dr": 1276,
      "gan": 1277,
      "gari": 1278,
      "ise": 1279,
      "lak": 1280,
      "kiye": 1281,
      "kahe": 1282,
      "kara": 1283,
      "keh": 1284,
      "hij": 1285,
      "may": 1286,
      "pari": 1287,
      "##niti": 1288,
      "mandi": 1289,
      "##maan": 1290,
      "roj": 1291,
      "tabhi": 1292,
      "paise": 1293,
      "alag": 1294,
      "2019": 1295,
      "200": 1296,
      "aza": 1297,
      "free": 1298,
      "pan": 1299,
      "pre": 1300,
      "por": 1301,
      "##unga": 1302,
      "##end": 1303,
      "##saan": 1304,
      "mang": 1305,
      "sakti": 1306,
      "muslims": 1307,
      "matlab": 1308,
      "dusre": 1309,
      "jagah": 1310,
      "aar": 1311,
      "we": 1312,
      "##wi": 1313,
      "##hai": 1314,
      "##hid": 1315,
      "##hee": 1316,
      "karti": 1317,
      "saalo": 1318,
      "##umb": 1319,
      "chahte": 1320,
      "krta": 1321,
      "yahan": 1322,
      "mana": 1323,
      "upar": 1324,
      "rajn": 1325,
      "warna": 1326,
      "11": 1327,
      "bina": 1328,
      "pal": 1329,
      "shan": 1330,
      "##so": 1331,
      "bap": 1332,
      "##ers": 1333,
      "chalega": 1334,
      "rahega": 1335,
      "badal": 1336,
      "##jiye": 1337,
      "rakh": 1338,
      "rakha": 1339,
      "hmare": 1340,
      "bhakto": 1341,
      "note": 1342,
      "satta": 1343,
      "country": 1344,
      "bal": 1345,
      "dhan": 1346,
      "han": 1347,
      "sr": 1348,
      "##kho": 1349,
      "##wad": 1350,
      "##ted": 1351,
      "maz": 1352,
      "iske": 1353,
      "marte": 1354,
      "pee": 1355,
      "mantri": 1356,
      "ata": 1357,
      "ghan": 1358,
      "##var": 1359,
      "##yat": 1360,
      "##yak": 1361,
      "javan": 1362,
      "champ": 1363,
      "magar": 1364,
      "tumhe": 1365,
      "khana": 1366,
      "dost": 1367,
      "usse": 1368,
      "tumhara": 1369,
      "dimag": 1370,
      "15": 1371,
      "60": 1372,
      "gun": 1373,
      "mt": 1374,
      "poo": 1375,
      "baj": 1376,
      "maan": 1377,
      "haha": 1378,
      "peh": 1379,
      "chud": 1380,
      "huye": 1381,
      "netao": 1382,
      "##ukh": 1383,
      "sharam": 1384,
      "pich": 1385,
      "tal": 1386,
      "waise": 1387,
      "##ag": 1388,
      "...": 1389,
      "jaisa": 1390,
      "milega": 1391,
      "sol": 1392,
      "##mit": 1393,
      "##vie": 1394,
      "atta": 1395,
      "politics": 1396,
      "bta": 1397,
      "bike": 1398,
      "dai": 1399,
      "dam": 1400,
      "our": 1401,
      "##sti": 1402,
      "##hele": 1403,
      "naf": 1404,
      "sahab": 1405,
      "mud": 1406,
      "bane": 1407,
      "##jah": 1408,
      "##jid": 1409,
      "minister": 1410,
      "khilaf": 1411,
      "fi": 1412,
      "hin": 1413,
      "##ok": 1414,
      "mahi": 1415,
      "iski": 1416,
      "hein": 1417,
      "badle": 1418,
      "sonu": 1419,
      "rajnath": 1420,
      "70": 1421,
      "ae": 1422,
      "ati": 1423,
      "aane": 1424,
      "ut": 1425,
      "##hh": 1426,
      "##ght": 1427,
      "##chan": 1428,
      "##pre": 1429,
      "unka": 1430,
      "hume": 1431,
      "khush": 1432,
      "jayenge": 1433,
      "andar": 1434,
      "rajniti": 1435,
      "khel": 1436,
      "attack": 1437,
      "aya": 1438,
      "cro": 1439,
      "dala": 1440,
      "fake": 1441,
      "mam": 1442,
      "zar": 1443,
      "##wo": 1444,
      "meri": 1445,
      "##urt": 1446,
      "jag": 1447,
      "apko": 1448,
      "join": 1449,
      "behen": 1450,
      "rahenge": 1451,
      "bolna": 1452,
      "res": 1453,
      "shahid": 1454,
      "gandhi": 1455,
      "waqt": 1456,
      "aati": 1457,
      "his": 1458,
      "scho": 1459,
      "##ii": 1460,
      "baja": 1461,
      "jaha": 1462,
      "sap": 1463,
      "rahul": 1464,
      "chaiye": 1465,
      "tumlog": 1466,
      "##eed": 1467,
      "jayegi": 1468,
      "china": 1469,
      "plz": 1470,
      "agent": 1471,
      "mandir": 1472,
      "not": 1473,
      "pri": 1474,
      "ru": 1475,
      "usi": 1476,
      "vik": 1477,
      "##bu": 1478,
      "bahan": 1479,
      "bache": 1480,
      "isse": 1481,
      "cow": 1482,
      "dikh": 1483,
      "only": 1484,
      "bewak": 1485,
      "aak": 1486,
      "jha": 1487,
      "lund": 1488,
      "##uji": 1489,
      "##boo": 1490,
      "##wood": 1491,
      "chahta": 1492,
      "lene": 1493,
      "sabko": 1494,
      "##aree": 1495,
      "maine": 1496,
      "##oof": 1497,
      "banaya": 1498,
      "thoda": 1499,
      "ladki": 1500,
      "ammi": 1501,
      "achha": 1502,
      "kharab": 1503,
      "nafrat": 1504,
      "jam": 1505,
      "nh": 1506,
      "tv": 1507,
      "um": 1508,
      "##dhan": 1509,
      "##hum": 1510,
      "##lu": 1511,
      "##anga": 1512,
      "kah": 1513,
      "sen": 1514,
      "saheed": 1515,
      "raaj": 1516,
      "##lease": 1517,
      "aapne": 1518,
      "bharti": 1519,
      "rakhna": 1520,
      "padega": 1521,
      "state": 1522,
      "you": 1523,
      "atanki": 1524,
      "jaldi": 1525,
      "bhul": 1526,
      "######": 1527,
      "seena": 1528,
      "lenge": 1529,
      "pani": 1530,
      "sina": 1531,
      "what": 1532,
      "##dy": 1533,
      "saala": 1534,
      "chahi": 1535,
      "haal": 1536,
      "bomb": 1537,
      "##ence": 1538,
      "##ori": 1539,
      "khali": 1540,
      "##kaat": 1541,
      "shak": 1542,
      "dekhna": 1543,
      "mullo": 1544,
      "gandu": 1545,
      "dush": 1546,
      "samjha": 1547,
      "jitna": 1548,
      "aadmi": 1549,
      "25": 1550,
      "awa": 1551,
      "uda": 1552,
      "##uu": 1553,
      "##lad": 1554,
      "##gle": 1555,
      "##cash": 1556,
      "##ard": 1557,
      "##hit": 1558,
      "##hun": 1559,
      "chak": 1560,
      "isme": 1561,
      "chuka": 1562,
      "hamla": 1563,
      "bihar": 1564,
      "bhen": 1565,
      "kyuki": 1566,
      "adhi": 1567,
      "##bhak": 1568,
      "jitne": 1569,
      "##adesh": 1570,
      "mcd": 1571,
      "himmat": 1572,
      "school": 1573,
      "dali": 1574,
      "gy": 1575,
      "jat": 1576,
      "lga": 1577,
      "##odh": 1578,
      "##tro": 1579,
      "sec": 1580,
      "sawal": 1581,
      "lok": 1582,
      "movie": 1583,
      "banane": 1584,
      "##ory": 1585,
      "khate": 1586,
      "suna": 1587,
      "##baad": 1588,
      "jawaan": 1589,
      "name": 1590,
      "kyoki": 1591,
      "piche": 1592,
      "bt": 1593,
      "ghr": 1594,
      "tra": 1595,
      "yad": 1596,
      "##rr": 1597,
      "##op": 1598,
      "##tr": 1599,
      "kaa": 1600,
      "kap": 1601,
      "kaat": 1602,
      "##amp": 1603,
      "beef": 1604,
      "suwar": 1605,
      "dekhte": 1606,
      "kitni": 1607,
      "skte": 1608,
      "world": 1609,
      "dushman": 1610,
      "esa": 1611,
      "jun": 1612,
      "wai": 1613,
      "##aye": 1614,
      "##tak": 1615,
      "##ff": 1616,
      "sad": 1617,
      "inka": 1618,
      "loot": 1619,
      "haq": 1620,
      "isti": 1621,
      "aapke": 1622,
      "##oom": 1623,
      "mili": 1624,
      "shame": 1625,
      "##low": 1626,
      "ache": 1627,
      "accha": 1628,
      "pade": 1629,
      "##llu": 1630,
      "dalal": 1631,
      "batao": 1632,
      "face": 1633,
      "samjh": 1634,
      "likha": 1635,
      "masjid": 1636,
      "champcash": 1637,
      "jinda": 1638,
      "pun": 1639,
      "##lla": 1640,
      "##jab": 1641,
      "##ary": 1642,
      "##ure": 1643,
      "seat": 1644,
      "##ise": 1645,
      "loo": 1646,
      "bang": 1647,
      "lia": 1648,
      "bekar": 1649,
      "samay": 1650,
      "hinduo": 1651,
      "atankwadi": 1652,
      "gul": 1653,
      "line": 1654,
      "rai": 1655,
      "ud": 1656,
      "##au": 1657,
      "##hra": 1658,
      "##gn": 1659,
      "##gy": 1660,
      "bac": 1661,
      "bahot": 1662,
      "ind": 1663,
      "##lesh": 1664,
      "hei": 1665,
      "tuk": 1666,
      "tmhar": 1667,
      "hahahaha": 1668,
      "aatank": 1669,
      "shuru": 1670,
      "br": 1671,
      "ben": 1672,
      "gandi": 1673,
      "jhu": 1674,
      "please": 1675,
      "sai": 1676,
      "she": 1677,
      "var": 1678,
      "yada": 1679,
      "##tra": 1680,
      "##ance": 1681,
      "kee": 1682,
      "kehte": 1683,
      "baha": 1684,
      "rav": 1685,
      "bech": 1686,
      "jante": 1687,
      "court": 1688,
      "kashmiri": 1689,
      "hindustani": 1690,
      "jese": 1691,
      "sikh": 1692,
      "show": 1693,
      "hamesha": 1694,
      "500": 1695,
      "bate": 1696,
      "jhut": 1697,
      "my": 1698,
      "mis": 1699,
      "pho": 1700,
      "##ub": 1701,
      "##dan": 1702,
      "##oon": 1703,
      "##jar": 1704,
      "##71": 1705,
      "##dil": 1706,
      "karw": 1707,
      "inhe": 1708,
      "chalo": 1709,
      "gae": 1710,
      "##kari": 1711,
      "sudhar": 1712,
      "sarkaar": 1713,
      "dekhe": 1714,
      "shayad": 1715,
      "comm": 1716,
      "milta": 1717,
      "bakwas": 1718,
      "admi": 1719,
      "sikha": 1720,
      "jhoot": 1721,
      "crore": 1722,
      "yadav": 1723,
      "air": 1724,
      "bir": 1725,
      "dur": 1726,
      "ese": 1727,
      "hme": 1728,
      "hero": 1729,
      "sc": 1730,
      "ul": 1731,
      "vis": 1732,
      "yhi": 1733,
      "##et": 1734,
      "##ob": 1735,
      "##tal": 1736,
      "##hal": 1737,
      "dev": 1738,
      "deti": 1739,
      "jada": 1740,
      "insaan": 1741,
      "yehi": 1742,
      "aab": 1743,
      "lol": 1744,
      "haar": 1745,
      "paas": 1746,
      "##ssa": 1747,
      "reli": 1748,
      "report": 1749,
      "bato": 1750,
      "padta": 1751,
      "bhool": 1752,
      "pakistaniyo": 1753,
      "akhi": 1754,
      "chin": 1755,
      "sharma": 1756,
      "galti": 1757,
      "jarurat": 1758,
      "ara": 1759,
      "bla": 1760,
      "cr": 1761,
      "cor": 1762,
      "garee": 1763,
      "hun": 1764,
      "jake": 1765,
      "lu": 1766,
      "ny": 1767,
      "nhe": 1768,
      "thu": 1769,
      "##ao": 1770,
      "##min": 1771,
      "##mad": 1772,
      "##osa": 1773,
      "##ts": 1774,
      "##pak": 1775,
      "##jan": 1776,
      "##hil": 1777,
      "chah": 1778,
      "##lenge": 1779,
      "gau": 1780,
      "mit": 1781,
      "roz": 1782,
      "rajne": 1783,
      "sang": 1784,
      "hahahahaha": 1785,
      "jumla": 1786,
      "walon": 1787,
      "13": 1788,
      "aw": 1789,
      "th": 1790,
      "ty": 1791,
      "tai": 1792,
      "tur": 1793,
      "##av": 1794,
      "##ion": 1795,
      "##sak": 1796,
      "##shar": 1797,
      "##cle": 1798,
      "##qat": 1799,
      "##anki": 1800,
      "##yam": 1801,
      "tou": 1802,
      "##ner": 1803,
      "jahan": 1804,
      "saaf": 1805,
      "ins": 1806,
      "cham": 1807,
      "apke": 1808,
      "##daar": 1809,
      "krke": 1810,
      "hen": 1811,
      "page": 1812,
      "jio": 1813,
      "sari": 1814,
      "##med": 1815,
      "wap": 1816,
      "socho": 1817,
      "sake": 1818,
      "raksha": 1819,
      "dikhao": 1820,
      "chalta": 1821,
      "mulla": 1822,
      "bhakti": 1823,
      "skta": 1824,
      "rahoge": 1825,
      "sainiko": 1826,
      "lalu": 1827,
      "senik": 1828,
      "bht": 1829,
      "day": 1830,
      "jara": 1831,
      "tam": 1832,
      "ur": 1833,
      "yr": 1834,
      "##nu": 1835,
      "##lb": 1836,
      "key": 1837,
      "keya": 1838,
      "too": 1839,
      "##tey": 1840,
      "##ism": 1841,
      "tumne": 1842,
      "gaali": 1843,
      "deshd": 1844,
      "bechar": 1845,
      "dig": 1846,
      "##sion": 1847,
      "##ust": 1848,
      "power": 1849,
      "daal": 1850,
      "taraf": 1851,
      "chee": 1852,
      "shiv": 1853,
      "naksali": 1854,
      "vikas": 1855,
      "istifa": 1856,
      "akhilesh": 1857,
      "all": 1858,
      "fe": 1859,
      "fal": 1860,
      "phle": 1861,
      "tala": 1862,
      "##ther": 1863,
      "##jo": 1864,
      "##ze": 1865,
      "naya": 1866,
      "ser": 1867,
      "maza": 1868,
      "haa": 1869,
      "pay": 1870,
      "chuke": 1871,
      "bhaiyo": 1872,
      "act": 1873,
      "andh": 1874,
      "##aaaa": 1875,
      "namo": 1876,
      "##peak": 1877,
      "khatm": 1878,
      "buz": 1879,
      "expre": 1880,
      "lgta": 1881,
      "chhod": 1882,
      "bul": 1883,
      "cri": 1884,
      "dak": 1885,
      "gee": 1886,
      "numb": 1887,
      "uk": 1888,
      "##om": 1889,
      "##khe": 1890,
      "##gam": 1891,
      "##44": 1892,
      "##fer": 1893,
      "hoo": 1894,
      "men": 1895,
      "nay": 1896,
      "nazar": 1897,
      "jaate": 1898,
      "saare": 1899,
      "raat": 1900,
      "aag": 1901,
      "##istani": 1902,
      "real": 1903,
      "musl": 1904,
      "shah": 1905,
      "shadi": 1906,
      "dekhne": 1907,
      "barbad": 1908,
      "##udh": 1909,
      "ladai": 1910,
      "khoon": 1911,
      "dub": 1912,
      "musalmano": 1913,
      "politici": 1914,
      "malik": 1915,
      "##zzat": 1916,
      "express": 1917,
      "ah": 1918,
      "ali": 1919,
      "ghum": 1920,
      "lar": 1921,
      "lat": 1922,
      "nar": 1923,
      "sri": 1924,
      "vish": 1925,
      "yha": 1926,
      "##80": 1927,
      "##sta": 1928,
      "##bani": 1929,
      "##wat": 1930,
      "##wee": 1931,
      "##all": 1932,
      "honi": 1933,
      "bahen": 1934,
      "baaki": 1935,
      "maha": 1936,
      "##day": 1937,
      "##orter": 1938,
      "yah": 1939,
      "jail": 1940,
      "##000": 1941,
      "waale": 1942,
      "wajah": 1943,
      "bich": 1944,
      "rok": 1945,
      "roti": 1946,
      "dard": 1947,
      "baith": 1948,
      "jute": 1949,
      "malum": 1950,
      "kasmir": 1951,
      "soldi": 1952,
      "aja": 1953,
      "by": 1954,
      "bara": 1955,
      "drohi": 1956,
      "goo": 1957,
      "like": 1958,
      "ran": 1959,
      "tat": 1960,
      "##uj": 1961,
      "##ous": 1962,
      "##ton": 1963,
      "##cy": 1964,
      "##jha": 1965,
      "##aka": 1966,
      "hon": 1967,
      "den": 1968,
      "rahte": 1969,
      "bhaga": 1970,
      "muje": 1971,
      "tumko": 1972,
      "bete": 1973,
      "dia": 1974,
      "khaya": 1975,
      "##dev": 1976,
      "indians": 1977,
      "bhagwa": 1978,
      "pathar": 1979,
      "fail": 1980,
      "gujrat": 1981,
      "talak": 1982,
      "amit": 1983,
      "cash": 1984,
      "fr": 1985,
      "fb": 1986,
      "izzat": 1987,
      "jwan": 1988,
      "jut": 1989,
      "land": 1990,
      "pha": 1991,
      "uss": 1992,
      "##nk": 1993,
      "##dhi": 1994,
      "##el": 1995,
      "##ker": 1996,
      "##sal": 1997,
      "##sad": 1998,
      "##son": 1999,
      "##cation": 2000,
      "##any": 2001,
      "##yee": 2002,
      "##yegi": 2003,
      "rahy": 2004,
      "chat": 2005,
      "money": 2006,
      "abi": 2007,
      "apki": 2008,
      "haan": 2009,
      "lead": 2010,
      "janwar": 2011,
      "manmo": 2012,
      "big": 2013,
      "biwi": 2014,
      "rakho": 2015,
      "bhok": 2016,
      "jisne": 2017,
      "chl": 2018,
      "madr": 2019,
      "abey": 2020,
      "dunia": 2021,
      "achcha": 2022,
      "jaroor": 2023,
      "tarha": 2024,
      "jumle": 2025,
      "azan": 2026,
      "##book": 2027,
      "jung": 2028,
      "facebook": 2029,
      "ravish": 2030,
      "religi": 2031,
      "deshdrohi": 2032,
      "number": 2033,
      "50": 2034,
      "ane": 2035,
      "ake": 2036,
      "dab": 2037,
      "dalo": 2038,
      "dhy": 2039,
      "im": 2040,
      "ir": 2041,
      "olad": 2042,
      "shu": 2043,
      "vale": 2044,
      "##dam": 2045,
      "##rup": 2046,
      "##osi": 2047,
      "##pi": 2048,
      "##val": 2049,
      "##jee": 2050,
      "year": 2051,
      "aayega": 2052,
      "change": 2053,
      "loud": 2054,
      "abb": 2055,
      "marta": 2056,
      "beshar": 2057,
      "pah": 2058,
      "leke": 2059,
      "such": 2060,
      "cong": 2061,
      "karoge": 2062,
      "start": 2063,
      "##ward": 2064,
      "##iness": 2065,
      "asli": 2066,
      "videos": 2067,
      "halala": 2068,
      "garib": 2069,
      "azaan": 2070,
      "punjab": 2071,
      "buzdil": 2072,
      "manmohan": 2073,
      "amir": 2074,
      "bd": 2075,
      "ghot": 2076,
      "km": 2077,
      "kata": 2078,
      "rhy": 2079,
      "tay": 2080,
      "whi": 2081,
      "zara": 2082,
      "##mal": 2083,
      "##eti": 2084,
      "##ram": 2085,
      "##lle": 2086,
      "##ladesh": 2087,
      "##cket": 2088,
      "##ft": 2089,
      "kaho": 2090,
      "kahte": 2091,
      "##ding": 2092,
      "tod": 2093,
      "jae": 2094,
      "##ump": 2095,
      "##ong": 2096,
      "order": 2097,
      "lie": 2098,
      "life": 2099,
      "behan": 2100,
      "sabit": 2101,
      "aapki": 2102,
      "usne": 2103,
      "##wane": 2104,
      "jabab": 2105,
      "congres": 2106,
      "congressi": 2107,
      "tabah": 2108,
      "dikhane": 2109,
      "jesa": 2110,
      "##cial": 2111,
      "business": 2112,
      "https": 2113,
      "1000": 2114,
      "supporter": 2115,
      "kbhi": 2116,
      "chunav": 2117,
      "##========": 2118,
      "##trol": 2119,
      "wait": 2120,
      "faltu": 2121,
      "muslman": 2122,
      "dhyan": 2123,
      "aate": 2124,
      "ayega": 2125,
      "ce": 2126,
      "ci": 2127,
      "dukh": 2128,
      "edu": 2129,
      "fu": 2130,
      "gin": 2131,
      "mir": 2132,
      "nu": 2133,
      "nation": 2134,
      "os": 2135,
      "rs": 2136,
      "rup": 2137,
      "yu": 2138,
      "##ky": 2139,
      "##sy": 2140,
      "##pta": 2141,
      "##jli": 2142,
      "##yga": 2143,
      "##hega": 2144,
      "hoge": 2145,
      "deb": 2146,
      "bazi": 2147,
      "jaati": 2148,
      "##era": 2149,
      "aao": 2150,
      "hit": 2151,
      "tumari": 2152,
      "beg": 2153,
      "lagi": 2154,
      "sambha": 2155,
      "sara": 2156,
      "bolly": 2157,
      "rehte": 2158,
      "##chodo": 2159,
      "they": 2160,
      "theek": 2161,
      "##yog": 2162,
      "achi": 2163,
      "rakhi": 2164,
      "madhar": 2165,
      "suru": 2166,
      "dalali": 2167,
      "dunga": 2168,
      "##shish": 2169,
      "jald": 2170,
      "likh": 2171,
      "halat": 2172,
      "##hadat": 2173,
      "aatanki": 2174,
      "virodh": 2175,
      "black": 2176,
      "gareeb": 2177,
      "ao": 2178,
      "bari": 2179,
      "et": 2180,
      "fami": 2181,
      "ghat": 2182,
      "hata": 2183,
      "kala": 2184,
      "mla": 2185,
      "op": 2186,
      "sher": 2187,
      "utar": 2188,
      "ullu": 2189,
      "##em": 2190,
      "##thi": 2191,
      "##thar": 2192,
      "##cor": 2193,
      "##par": 2194,
      "##50": 2195,
      "##20": 2196,
      "##ail": 2197,
      "##ame": 2198,
      "##yed": 2199,
      "def": 2200,
      "degi": 2201,
      "nahe": 2202,
      "##tay": 2203,
      "sey": 2204,
      "jahil": 2205,
      "raja": 2206,
      "##gaya": 2207,
      "love": 2208,
      "bhasan": 2209,
      "##tane": 2210,
      "##lao": 2211,
      "##laad": 2212,
      "bohot": 2213,
      "parti": 2214,
      "leta": 2215,
      "laun": 2216,
      "aapka": 2217,
      "suk": 2218,
      "jaisi": 2219,
      "##ooo": 2220,
      "taki": 2221,
      "nit": 2222,
      "nigam": 2223,
      "badha": 2224,
      "karegi": 2225,
      "akhir": 2226,
      "##bile": 2227,
      "tax": 2228,
      "baitha": 2229,
      "bhejo": 2230,
      "ghatiya": 2231,
      "shanti": 2232,
      "bangladesh": 2233,
      "corrup": 2234,
      "##peaker": 2235,
      "bali": 2236,
      "dha": 2237,
      "dan": 2238,
      "dhi": 2239,
      "duk": 2240,
      "ear": 2241,
      "fay": 2242,
      "jhan": 2243,
      "kht": 2244,
      "lam": 2245,
      "lut": 2246,
      "pla": 2247,
      "pil": 2248,
      "rho": 2249,
      "uth": 2250,
      "wat": 2251,
      "yh": 2252,
      "##ast": 2253,
      "##go": 2254,
      "##sat": 2255,
      "##pt": 2256,
      "##pan": 2257,
      "##pur": 2258,
      "##ano": 2259,
      "kiu": 2260,
      "kafi": 2261,
      "kayar": 2262,
      "##yaar": 2263,
      "##dit": 2264,
      "der": 2265,
      "bahad": 2266,
      "##nay": 2267,
      "rape": 2268,
      "mobile": 2269,
      "maut": 2270,
      "bolega": 2271,
      "joo": 2272,
      "layak": 2273,
      "saboot": 2274,
      "chuki": 2275,
      "unhone": 2276,
      "samjhe": 2277,
      "##lop": 2278,
      "rohit": 2279,
      "this": 2280,
      "challenge": 2281,
      "thodi": 2282,
      "off": 2283,
      "krega": 2284,
      "pasand": 2285,
      "fark": 2286,
      "with": 2287,
      "drama": 2288,
      "daily": 2289,
      "hindi": 2290,
      "whatsa": 2291,
      "dalit": 2292,
      "chinta": 2293,
      "soldiers": 2294,
      "religion": 2295,
      "aai": 2296,
      "avi": 2297,
      "car": 2298,
      "camp": 2299,
      "hara": 2300,
      "il": 2301,
      "ish": 2302,
      "jnu": 2303,
      "mp": 2304,
      "ok": 2305,
      "opp": 2306,
      "tari": 2307,
      "##tter": 2308,
      "##pl": 2309,
      "##47": 2310,
      "##90": 2311,
      "kari": 2312,
      "karan": 2313,
      "meh": 2314,
      "##inch": 2315,
      "naye": 2316,
      "kewal": 2317,
      "baare": 2318,
      "##hon": 2319,
      "saam": 2320,
      "inse": 2321,
      "kun": 2322,
      "kute": 2323,
      "krwa": 2324,
      "hee": 2325,
      "banta": 2326,
      "pares": 2327,
      "behn": 2328,
      "hamre": 2329,
      "usme": 2330,
      "khun": 2331,
      "bharosa": 2332,
      "road": 2333,
      "proof": 2334,
      "paid": 2335,
      "##aniyat": 2336,
      "##ppa": 2337,
      "gadhe": 2338,
      "patthar": 2339,
      "khol": 2340,
      "musalmaan": 2341,
      "foji": 2342,
      "kanoon": 2343,
      "force": 2344,
      "bikau": 2345,
      "##----------------": 2346,
      "majb": 2347,
      "porki": 2348,
      "ghanta": 2349,
      "dalaal": 2350,
      "chakkar": 2351,
      "lokpal": 2352,
      "gulam": 2353,
      "photo": 2354,
      "sanghi": 2355,
      "bollywood": 2356,
      "cent": 2357,
      "case": 2358,
      "eng": 2359,
      "gus": 2360,
      "gang": 2361,
      "good": 2362,
      "guru": 2363,
      "kch": 2364,
      "nanga": 2365,
      "oh": 2366,
      "uni": 2367,
      "##mu": 2368,
      "##ms": 2369,
      "##dhe": 2370,
      "##kk": 2371,
      "##she": 2372,
      "##stan": 2373,
      "##vo": 2374,
      "##40": 2375,
      "##hin": 2376,
      "kise": 2377,
      "##din": 2378,
      "karen": 2379,
      "bab": 2380,
      "saf": 2381,
      "sayad": 2382,
      "rast": 2383,
      "inte": 2384,
      "##ley": 2385,
      "##lete": 2386,
      "mag": 2387,
      "##tanki": 2388,
      "tumare": 2389,
      "isis": 2390,
      "##wab": 2391,
      "beth": 2392,
      "dijiye": 2393,
      "##ssi": 2394,
      "khata": 2395,
      "tuje": 2396,
      "##dey": 2397,
      "same": 2398,
      "bolti": 2399,
      "##meer": 2400,
      "chori": 2401,
      "wahan": 2402,
      "rehta": 2403,
      "##ular": 2404,
      "khuda": 2405,
      "kami": 2406,
      "##bah": 2407,
      "andhe": 2408,
      "jisko": 2409,
      "chha": 2410,
      "thok": 2411,
      "gupta": 2412,
      "fouji": 2413,
      "kyunki": 2414,
      "1971": 2415,
      "pork": 2416,
      "gunda": 2417,
      "mudda": 2418,
      "whatsapp": 2419,
      "bra": 2420,
      "esi": 2421,
      "ful": 2422,
      "jakar": 2423,
      "lan": 2424,
      "mon": 2425,
      "nat": 2426,
      "pati": 2427,
      "qu": 2428,
      "##adi": 2429,
      "##mar": 2430,
      "##ling": 2431,
      "##po": 2432,
      "##ban": 2433,
      "##wate": 2434,
      "karva": 2435,
      "##yege": 2436,
      "nau": 2437,
      "chai": 2438,
      "chaye": 2439,
      "maare": 2440,
      "##iko": 2441,
      "paki": 2442,
      "body": 2443,
      "banana": 2444,
      "pahu": 2445,
      "laho": 2446,
      "khade": 2447,
      "sabut": 2448,
      "humne": 2449,
      "anti": 2450,
      "##ult": 2451,
      "rona": 2452,
      "barbaad": 2453,
      "dikhaya": 2454,
      "salman": 2455,
      "ghuss": 2456,
      "trh": 2457,
      "train": 2458,
      "##logo": 2459,
      "baithe": 2460,
      "##ctor": 2461,
      "waly": 2462,
      "zindabad": 2463,
      "murda": 2464,
      "##****": 2465,
      "##\u0000\u0000\u0000\u0000\u0000\u0000\u0000\u0000\u0000\u0000\u0000\u0000\u0000\u0000\u0000\u0000\u0000\u0000\u0000\u0000\u0000\u0000\u0000\u0000\u0000\u0000\u0000\u0000\u0000\u0000\u0000\u0000\u0000\u0000\u0000\u0000\u0000\u0000\u0000\u0000\u0000\u0000\u0000\u0000\u0000\u0000\u0000\u0000\u0000\u0000\u0000\u0000\u0000\u0000\u0000\u0000\u0000\u0000\u0000\u0000\u0000\u0000\u0000\u0000\u0000\u0000\u0000\u0000\u0000\u0000\u0000\u0000\u0000\u0000\u0000\u0000\u0000\u0000\u0000\u0000\u0000\u0000\u0000\u0000\u0000\u0000\u0000\u0000\u0000\u0000\u0000\u0000\u0000\u0000\u0000\u0000\u0000\u0000\u0000\u0000\u0000\u0000\u0000\u0000\u0000\u0000\u0000\u0000\u0000\u0000\u0000\u0000\u0000\u0000\u0000\u0000\u0000\u0000\u0000\u0000\u0000\u0000\u0000\u0000\u0000\u0000\u0000\u0000": 2466,
      "trah": 2467,
      "family": 2468,
      "asa": 2469,
      "her": 2470,
      "jy": 2471,
      "mumb": 2472,
      "one": 2473,
      "py": 2474,
      "sw": 2475,
      "sto": 2476,
      "##ute": 2477,
      "##nam": 2478,
      "##dd": 2479,
      "##hri": 2480,
      "##gat": 2481,
      "##vate": 2482,
      "##vas": 2483,
      "##65": 2484,
      "##wale": 2485,
      "kijiye": 2486,
      "karni": 2487,
      "deni": 2488,
      "nax": 2489,
      "kese": 2490,
      "##ura": 2491,
      "##ado": 2492,
      "pakis": 2493,
      "haath": 2494,
      "huwa": 2495,
      "tune": 2496,
      "jaiso": 2497,
      "angre": 2498,
      "choro": 2499,
      "janti": 2500,
      "##jit": 2501,
      "dino": 2502,
      "puja": 2503,
      "banao": 2504,
      "teen": 2505,
      "bula": 2506,
      "plan": 2507,
      "prachar": 2508,
      "work": 2509,
      "aulaad": 2510,
      ",,,,": 2511,
      "haramkho": 2512,
      "lakh": 2513,
      "azadi": 2514,
      "jaty": 2515,
      "rajneeti": 2516,
      "wapas": 2517,
      "cheez": 2518,
      "actor": 2519,
      "louds": 2520,
      "fayda": 2521,
      "mumbai": 2522,
      "av": 2523,
      "ana": 2524,
      "aor": 2525,
      "bro": 2526,
      "dhu": 2527,
      "jud": 2528,
      "nis": 2529,
      "okat": 2530,
      "okaat": 2531,
      "rat": 2532,
      "tre": 2533,
      "usa": 2534,
      "vic": 2535,
      "za": 2536,
      "zyada": 2537,
      "##ush": 2538,
      "##nal": 2539,
      "##ran": 2540,
      "##hre": 2541,
      "##gai": 2542,
      "##gla": 2543,
      "##ting": 2544,
      "##jam": 2545,
      "##ww": 2546,
      "##33": 2547,
      "##hadi": 2548,
      "hoja": 2549,
      "mehn": 2550,
      "seri": 2551,
      "saab": 2552,
      "aayi": 2553,
      "chad": 2554,
      "##get": 2555,
      "##tana": 2556,
      "has": 2557,
      "krti": 2558,
      "##way": 2559,
      "papa": 2560,
      "huaa": 2561,
      "##dee": 2562,
      "##ool": 2563,
      "rehe": 2564,
      "mano": 2565,
      "mante": 2566,
      "khub": 2567,
      "khushi": 2568,
      "social": 2569,
      "bhart": 2570,
      "god": 2571,
      "harkat": 2572,
      "lagte": 2573,
      "acche": 2574,
      "jise": 2575,
      "jisse": 2576,
      "bhee": 2577,
      "bheja": 2578,
      "madam": 2579,
      "hmari": 2580,
      "akal": 2581,
      "kisne": 2582,
      "bandh": 2583,
      "yout": 2584,
      "sbko": 2585,
      "##pect": 2586,
      "katu": 2587,
      "check": 2588,
      "dusro": 2589,
      "busy": 2590,
      "aukaat": 2591,
      "##odhi": 2592,
      "complete": 2593,
      "garibo": 2594,
      "lakin": 2595,
      "pariwar": 2596,
      "parivar": 2597,
      "javano": 2598,
      "mtlb": 2599,
      "atif": 2600,
      "hisab": 2601,
      "aakhir": 2602,
      "adhikar": 2603,
      "leader": 2604,
      "mirchi": 2605,
      "saamne": 2606,
      "pareshan": 2607,
      "full": 2608,
      "aan": 2609,
      "bis": 2610,
      "can": 2611,
      "dhe": 2612,
      "dor": 2613,
      "das": 2614,
      "ij": 2615,
      "nir": 2616,
      "nuk": 2617,
      "phele": 2618,
      "than": 2619,
      "ten": 2620,
      "##rna": 2621,
      "##hhaha": 2622,
      "##kal": 2623,
      "##kti": 2624,
      "##pat": 2625,
      "##pati": 2626,
      "##yal": 2627,
      "##for": 2628,
      "##97": 2629,
      "##arat": 2630,
      "koshish": 2631,
      "##yer": 2632,
      "jaata": 2633,
      "sau": 2634,
      "sah": 2635,
      "##ond": 2636,
      "##sht": 2637,
      "chaha": 2638,
      "moham": 2639,
      "macha": 2640,
      "hae": 2641,
      "iste": 2642,
      "mard": 2643,
      "marenge": 2644,
      "deshbhak": 2645,
      "##waz": 2646,
      "beti": 2647,
      "bethe": 2648,
      "paa": 2649,
      "papp": 2650,
      "lega": 2651,
      "laat": 2652,
      "jite": 2653,
      "chun": 2654,
      "bhaiya": 2655,
      "##dega": 2656,
      "##desh": 2657,
      "unse": 2658,
      "rahay": 2659,
      "humara": 2660,
      "ans": 2661,
      "choo": 2662,
      "rep": 2663,
      "ager": 2664,
      "##chodi": 2665,
      "##ents": 2666,
      "acco": 2667,
      "##mid": 2668,
      "story": 2669,
      "bhot": 2670,
      "maaf": 2671,
      "##icket": 2672,
      "pucho": 2673,
      "kisko": 2674,
      "your": 2675,
      "santi": 2676,
      "gussa": 2677,
      "bure": 2678,
      "jitni": 2679,
      "isiliye": 2680,
      "political": 2681,
      "smjh": 2682,
      "milegi": 2683,
      "terrorists": 2684,
      "zindagi": 2685,
      "125": 2686,
      "ganda": 2687,
      "2000": 2688,
      "pooja": 2689,
      "secular": 2690,
      "kapil": 2691,
      "vishwas": 2692,
      "google": 2693,
      "fuck": 2694,
      "pappu": 2695,
      "account": 2696,
      "aake": 2697,
      "bl": 2698,
      "fin": 2699,
      "gum": 2700,
      "ila": 2701,
      "jr": 2702,
      "just": 2703,
      "lun": 2704,
      "pyar": 2705,
      "rh": 2706,
      "ris": 2707,
      "tare": 2708,
      "vai": 2709,
      "vin": 2710,
      "vas": 2711,
      "##ning": 2712,
      "##ru": 2713,
      "##lana": 2714,
      "##oh": 2715,
      "##kum": 2716,
      "##gr": 2717,
      "##pr": 2718,
      "##zam": 2719,
      "##31": 2720,
      "kaya": 2721,
      "##akr": 2722,
      "hos": 2723,
      "hokar": 2724,
      "kargi": 2725,
      "dee": 2726,
      "deve": 2727,
      "##ink": 2728,
      "kehta": 2729,
      "baate": 2730,
      "back": 2731,
      "sex": 2732,
      "jaya": 2733,
      "jaane": 2734,
      "jaega": 2735,
      "##ons": 2736,
      "insa": 2737,
      "insha": 2738,
      "aas": 2739,
      "bhasha": 2740,
      "mahan": 2741,
      "##ika": 2742,
      "apny": 2743,
      "##sena": 2744,
      "gaa": 2745,
      "hel": 2746,
      "bee": 2747,
      "best": 2748,
      "pet": 2749,
      "paak": 2750,
      "padi": 2751,
      "mita": 2752,
      "##ated": 2753,
      "dekhiye": 2754,
      "##meed": 2755,
      "choti": 2756,
      "##eez": 2757,
      "shab": 2758,
      "gobar": 2759,
      "dikhta": 2760,
      "kabi": 2761,
      "rakhe": 2762,
      "jiske": 2763,
      "jiska": 2764,
      "chutiyo": 2765,
      "surak": 2766,
      "saly": 2767,
      "maaro": 2768,
      "56inch": 2769,
      "team": 2770,
      "##ndra": 2771,
      "chutiyapa": 2772,
      "dusra": 2773,
      "##city": 2774,
      "girl": 2775,
      "azam": 2776,
      "kaisa": 2777,
      "naksal": 2778,
      "will": 2779,
      "##endra": 2780,
      "dosto": 2781,
      "zaroor": 2782,
      "shakal": 2783,
      "arab": 2784,
      "ukhad": 2785,
      "madrchod": 2786,
      "imand": 2787,
      "launch": 2788,
      "18": 2789,
      "14": 2790,
      "30": 2791,
      "aka": 2792,
      "aana": 2793,
      "award": 2794,
      "bhn": 2795,
      "chen": 2796,
      "card": 2797,
      "dham": 2798,
      "fas": 2799,
      "gl": 2800,
      "ly": 2801,
      "lye": 2802,
      "ph": 2803,
      "qur": 2804,
      "syed": 2805,
      "ver": 2806,
      "www": 2807,
      "zab": 2808,
      "##una": 2809,
      "##use": 2810,
      "##uuf": 2811,
      "##lan": 2812,
      "##of": 2813,
      "##kuf": 2814,
      "##ca": 2815,
      "##ps": 2816,
      "##vind": 2817,
      "##bat": 2818,
      "##wai": 2819,
      "##wala": 2820,
      "##fir": 2821,
      "##qab": 2822,
      "##hiya": 2823,
      "koe": 2824,
      "kor": 2825,
      "##yaan": 2826,
      "##hehe": 2827,
      "hoon": 2828,
      "hora": 2829,
      "##amb": 2830,
      "dey": 2831,
      "nap": 2832,
      "nahee": 2833,
      "##taan": 2834,
      "bayan": 2835,
      "##adhan": 2836,
      "inn": 2837,
      "inst": 2838,
      "inter": 2839,
      "inhone": 2840,
      "##let": 2841,
      "moot": 2842,
      "bhala": 2843,
      "maya": 2844,
      "machi": 2845,
      "abd": 2846,
      "pakad": 2847,
      "pakka": 2848,
      "bandi": 2849,
      "petrol": 2850,
      "khal": 2851,
      "##dea": 2852,
      "ung": 2853,
      "saman": 2854,
      "samart": 2855,
      "dekhi": 2856,
      "choda": 2857,
      "arre": 2858,
      "##jaya": 2859,
      "poor": 2860,
      "khul": 2861,
      "muslimo": 2862,
      "jiski": 2863,
      "##vijay": 2864,
      "##vel": 2865,
      "banaye": 2866,
      "person": 2867,
      "nikla": 2868,
      "dawood": 2869,
      "sans": 2870,
      "arey": 2871,
      "bataye": 2872,
      "jaoge": 2873,
      "##shit": 2874,
      "##fice": 2875,
      "office": 2876,
      "gaddaron": 2877,
      "company": 2878,
      "##come": 2879,
      "zarur": 2880,
      "bewakuuf": 2881,
      "awaz": 2882,
      "scam": 2883,
      "insaniyat": 2884,
      "politicians": 2885,
      "ghotala": 2886,
      "madharchod": 2887,
      "nitish": 2888,
      "bahadur": 2889,
      "murdabad": 2890,
      "kargil": 2891,
      "samarthan": 2892,
      "26": 2893,
      "80": 2894,
      "800": 2895,
      "bun": 2896,
      "bnd": 2897,
      "ca": 2898,
      "gur": 2899,
      "gro": 2900,
      "hak": 2901,
      "jala": 2902,
      "kbi": 2903,
      "nind": 2904,
      "pk": 2905,
      "phr": 2906,
      "phone": 2907,
      "sali": 2908,
      "tik": 2909,
      "tri": 2910,
      "yudh": 2911,
      "##aab": 2912,
      "##dra": 2913,
      "##hha": 2914,
      "##lne": 2915,
      "##lna": 2916,
      "##ku": 2917,
      "##gan": 2918,
      "##pad": 2919,
      "##zo": 2920,
      "##62": 2921,
      "##qu": 2922,
      "##has": 2923,
      "##ansa": 2924,
      "koun": 2925,
      "karya": 2926,
      "dege": 2927,
      "##ino": 2928,
      "##ini": 2929,
      "nav": 2930,
      "baa": 2931,
      "bah": 2932,
      "##ere": 2933,
      "hiz": 2934,
      "bhashan": 2935,
      "mah": 2936,
      "mahar": 2937,
      "maja": 2938,
      "abbu": 2939,
      "##iri": 2940,
      "muta": 2941,
      "krk": 2942,
      "marr": 2943,
      "bani": 2944,
      "banwate": 2945,
      "live": 2946,
      "behe": 2947,
      "pehele": 2948,
      "level": 2949,
      "digi": 2950,
      "lay": 2951,
      "khada": 2952,
      "jain": 2953,
      "thak": 2954,
      "##oooo": 2955,
      "ankh": 2956,
      "chodo": 2957,
      "waah": 2958,
      "rehne": 2959,
      "hogaya": 2960,
      "##badi": 2961,
      "kutton": 2962,
      "pair": 2963,
      "##aadi": 2964,
      "karege": 2965,
      "netaon": 2966,
      "mader": 2967,
      "chilla": 2968,
      "chupa": 2969,
      "##ollow": 2970,
      "patro": 2971,
      "jaaye": 2972,
      "trump": 2973,
      "bsp": 2974,
      "sikho": 2975,
      "gaddaro": 2976,
      "sainikon": 2977,
      "shri": 2978,
      "kanha": 2979,
      "alawa": 2980,
      "afs": 2981,
      "kursi": 2982,
      "mazhab": 2983,
      "peeche": 2984,
      "aatankwadi": 2985,
      "karwai": 2986,
      "mitti": 2987,
      "turant": 2988,
      "rakshak": 2989,
      "talaq": 2990,
      "cricket": 2991,
      "national": 2992,
      "debate": 2993,
      "ghatna": 2994,
      "sukma": 2995,
      "offic": 2996,
      "opposi": 2997,
      "nautanki": 2998,
      "lahore": 2999,
      "mehnat": 3000,
      "develop": 3001,
      "ase": 3002,
      "bri": 3003,
      "fik": 3004,
      "fun": 3005,
      "list": 3006,
      "nara": 3007,
      "out": 3008,
      "pis": 3009,
      "path": 3010,
      "swa": 3011,
      "ticket": 3012,
      "ved": 3013,
      "zoor": 3014,
      "##ube": 3015,
      "##ral": 3016,
      "##ks": 3017,
      "##kt": 3018,
      "##tta": 3019,
      "##tho": 3020,
      "##cent": 3021,
      "##pit": 3022,
      "##vad": 3023,
      "##jat": 3024,
      "##yani": 3025,
      "##zat": 3026,
      "##bh": 3027,
      "##bhi": 3028,
      "##fan": 3029,
      "##hale": 3030,
      "##ande": 3031,
      "kadam": 3032,
      "##akh": 3033,
      "home": 3034,
      "karara": 3035,
      "##ins": 3036,
      "##ission": 3037,
      "int": 3038,
      "indi": 3039,
      "income": 3040,
      "yeah": 3041,
      "chap": 3042,
      "maara": 3043,
      "maang": 3044,
      "muqab": 3045,
      "tumha": 3046,
      "kra": 3047,
      "##uni": 3048,
      "pahun": 3049,
      "dialo": 3050,
      "lao": 3051,
      "last": 3052,
      "yaa": 3053,
      "chudi": 3054,
      "doge": 3055,
      "unhi": 3056,
      "under": 3057,
      "humko": 3058,
      "chode": 3059,
      "jang": 3060,
      "rehna": 3061,
      "refer": 3062,
      "arvind": 3063,
      "##rom": 3064,
      "again": 3065,
      "##uld": 3066,
      "khujli": 3067,
      "lagata": 3068,
      "padh": 3069,
      "##vide": 3070,
      "uper": 3071,
      "tmhari": 3072,
      "hmne": 3073,
      "hmara": 3074,
      "##vadi": 3075,
      "pita": 3076,
      "marega": 3077,
      "kerna": 3078,
      "pls": 3079,
      "charge": 3080,
      "vajah": 3081,
      "kahin": 3082,
      "word": 3083,
      "bhosda": 3084,
      "giri": 3085,
      "aesa": 3086,
      "respect": 3087,
      "sapna": 3088,
      "tumlogo": 3089,
      "ulta": 3090,
      "chamcha": 3091,
      "andhbhak": 3092,
      "tatti": 3093,
      "jumleba": 3094,
      "defence": 3095,
      "ishwar": 3096,
      "loudspeaker": 3097,
      "manoj": 3098,
      "youtube": 3099,
      "fuckistani": 3100,
      "help": 3101,
      "abdul": 3102,
      "900": 3103,
      "bin": 3104,
      "bala": 3105,
      "cre": 3106,
      "dada": 3107,
      "ec": 3108,
      "fate": 3109,
      "follow": 3110,
      "from": 3111,
      "gre": 3112,
      "gyan": 3113,
      "gamb": 3114,
      "hari": 3115,
      "imp": 3116,
      "oye": 3117,
      "pd": 3118,
      "pate": 3119,
      "sor": 3120,
      "tir": 3121,
      "udhar": 3122,
      "##nat": 3123,
      "##dal": 3124,
      "##rak": 3125,
      "##ris": 3126,
      "##lish": 3127,
      "##kam": 3128,
      "##chu": 3129,
      "##xt": 3130,
      "##bandi": 3131,
      "##61": 3132,
      "##23": 3133,
      "##wn": 3134,
      "##wor": 3135,
      "##wara": 3136,
      "##wari": 3137,
      "##99": 3138,
      "kir": 3139,
      "kiy": 3140,
      "kos": 3141,
      "devi": 3142,
      "naaka": 3143,
      "top": 3144,
      "bacho": 3145,
      "baje": 3146,
      "##tel": 3147,
      "jaat": 3148,
      "sahe": 3149,
      "##gay": 3150,
      "##less": 3151,
      "nee": 3152,
      "moh": 3153,
      "bhauk": 3154,
      "bhajan": 3155,
      "mast": 3156,
      "apka": 3157,
      "kush": 3158,
      "mut": 3159,
      "haat": 3160,
      "isne": 3161,
      "logic": 3162,
      "bande": 3163,
      "paya": 3164,
      "khas": 3165,
      "khaye": 3166,
      "##raj": 3167,
      "doos": 3168,
      "doob": 3169,
      "rahegi": 3170,
      "sune": 3171,
      "that": 3172,
      "midiya": 3173,
      "choot": 3174,
      "ret": 3175,
      "colle": 3176,
      "##chai": 3177,
      "takat": 3178,
      "nii": 3179,
      "bhari": 3180,
      "##uth": 3181,
      "ander": 3182,
      "padhe": 3183,
      "dikhate": 3184,
      "dikhana": 3185,
      "##shay": 3186,
      "rajya": 3187,
      "hmm": 3188,
      "lado": 3189,
      "kisan": 3190,
      "sanik": 3191,
      "sunil": 3192,
      "add": 3193,
      "test": 3194,
      "sidha": 3195,
      "lagao": 3196,
      "jet": 3197,
      "##ndu": 3198,
      "dusri": 3199,
      "achhi": 3200,
      "ajan": 3201,
      "asal": 3202,
      "krenge": 3203,
      "publicity": 3204,
      "farak": 3205,
      "comments": 3206,
      "hadd": 3207,
      "virodhi": 3208,
      "kyonki": 3209,
      "balki": 3210,
      "ghante": 3211,
      "banege": 3212,
      "mahine": 3213,
      "bajaj": 3214,
      "bewakoof": 3215,
      "ummid": 3216,
      "##########": 3217,
      "awaaz": 3218,
      "##ople": 3219,
      "tmhara": 3220,
      "##paksh": 3221,
      "digvijay": 3222,
      "##jeet": 3223,
      "education": 3224,
      "corruption": 3225,
      "jyda": 3226,
      "saudi": 3227,
      "install": 3228,
      "zoordaar": 3229,
      "muqabla": 3230,
      "dialog": 3231,
      "65": 3232,
      "ay": 3233,
      "ani": 3234,
      "bss": 3235,
      "cam": 3236,
      "dy": 3237,
      "dang": 3238,
      "fen": 3239,
      "gr": 3240,
      "hist": 3241,
      "ik": 3242,
      "ima": 3243,
      "len": 3244,
      "late": 3245,
      "over": 3246,
      "pir": 3247,
      "tang": 3248,
      "twee": 3249,
      "val": 3250,
      "vala": 3251,
      "valo": 3252,
      "vaise": 3253,
      "zee": 3254,
      "##aan": 3255,
      "##nol": 3256,
      "##dent": 3257,
      "##lf": 3258,
      "##lane": 3259,
      "##kta": 3260,
      "##ghan": 3261,
      "##pf": 3262,
      "##yari": 3263,
      "##walo": 3264,
      "##..": 3265,
      "kach": 3266,
      "kahne": 3267,
      "##dio": 3268,
      "hog": 3269,
      "hoi": 3270,
      "dec": 3271,
      "dekar": 3272,
      "nawaz": 3273,
      "najaya": 3274,
      "base": 3275,
      "##tee": 3276,
      "jad": 3277,
      "rap": 3278,
      "rahta": 3279,
      "rasta": 3280,
      "##ady": 3281,
      "##tif": 3282,
      "##tian": 3283,
      "inve": 3284,
      "##leef": 3285,
      "moti": 3286,
      "aurat": 3287,
      "##ikh": 3288,
      "##lie": 3289,
      "##dast": 3290,
      "hafi": 3291,
      "krty": 3292,
      "boy": 3293,
      "mari": 3294,
      "##hand": 3295,
      "lic": 3296,
      "peda": 3297,
      "people": 3298,
      "pahan": 3299,
      "pahele": 3300,
      "dire": 3301,
      "##kil": 3302,
      "jim": 3303,
      "sabka": 3304,
      "chuda": 3305,
      "chudiya": 3306,
      "huyi": 3307,
      "hamne": 3308,
      "dos": 3309,
      "sarm": 3310,
      "ant": 3311,
      "any": 3312,
      "wahe": 3313,
      "##ees": 3314,
      "shahadat": 3315,
      "mani": 3316,
      "pok": 3317,
      "badh": 3318,
      "socha": 3319,
      "lagti": 3320,
      "acti": 3321,
      "andro": 3322,
      "purana": 3323,
      "rhega": 3324,
      "bhook": 3325,
      "chhe": 3326,
      "vijay": 3327,
      "chill": 3328,
      "bhagat": 3329,
      "salam": 3330,
      "salon": 3331,
      "##vaal": 3332,
      "gadha": 3333,
      "ambani": 3334,
      "namak": 3335,
      "now": 3336,
      "maarne": 3337,
      "##bit": 3338,
      "##biq": 3339,
      "dunya": 3340,
      "tau": 3341,
      "fauji": 3342,
      "jaao": 3343,
      "samjho": 3344,
      "strong": 3345,
      "madarchodo": 3346,
      "shor": 3347,
      "juta": 3348,
      "hathi": 3349,
      "gira": 3350,
      "jinke": 3351,
      "seema": 3352,
      "afghan": 3353,
      "veer": 3354,
      "jhoo": 3355,
      "pehchan": 3356,
      "utna": 3357,
      "sapne": 3358,
      "rule": 3359,
      "politician": 3360,
      "ahmad": 3361,
      "years": 3362,
      "khtm": 3363,
      "month": 3364,
      "aankh": 3365,
      "##form": 3366,
      "mutabiq": 3367,
      "opposition": 3368,
      "gambhir": 3369,
      "naakaami": 3370,
      "history": 3371,
      "-)": 3372,
      "00": 3373,
      "17": 3374,
      "300": 3375,
      "asi": 3376,
      "aani": 3377,
      "bda": 3378,
      "balo": 3379,
      "dh": 3380,
      "fak": 3381,
      "fur": 3382,
      "jama": 3383,
      "khta": 3384,
      "lge": 3385,
      "other": 3386,
      "pyaar": 3387,
      "pents": 3388,
      "rk": 3389,
      "sta": 3390,
      "sma": 3391,
      "shr": 3392,
      "sister": 3393,
      "tw": 3394,
      "tan": 3395,
      "zub": 3396,
      "##age": 3397,
      "##line": 3398,
      "##kane": 3399,
      "##gati": 3400,
      "##giri": 3401,
      "##88": 3402,
      "##sar": 3403,
      "##pok": 3404,
      "##bal": 3405,
      "##qt": 3406,
      "##que": 3407,
      "##72": 3408,
      "##ally": 3409,
      "kiyo": 3410,
      "kaj": 3411,
      "mey": 3412,
      "meet": 3413,
      "##int": 3414,
      "##inge": 3415,
      "nach": 3416,
      "kehne": 3417,
      "bag": 3418,
      "bahi": 3419,
      "##urm": 3420,
      "sek": 3421,
      "set": 3422,
      "jav": 3423,
      "saja": 3424,
      "saza": 3425,
      "savaal": 3426,
      "raste": 3427,
      "##adar": 3428,
      "##hara": 3429,
      "##led": 3430,
      "lode": 3431,
      "bhik": 3432,
      "hia": 3433,
      "mot": 3434,
      "mout": 3435,
      "mother": 3436,
      "##ren": 3437,
      "mau": 3438,
      "mahe": 3439,
      "apas": 3440,
      "##see": 3441,
      "mug": 3442,
      "boli": 3443,
      "mary": 3444,
      "market": 3445,
      "banna": 3446,
      "banate": 3447,
      "##key": 3448,
      "##wahi": 3449,
      "##waas": 3450,
      "pesha": 3451,
      "paper": 3452,
      "laal": 3453,
      "khao": 3454,
      "khair": 3455,
      "sabak": 3456,
      "##sile": 3457,
      "hamle": 3458,
      "dogle": 3459,
      "subah": 3460,
      "bologe": 3461,
      "##ality": 3462,
      "kamj": 3463,
      "kamine": 3464,
      "badnam": 3465,
      "dekhta": 3466,
      "##tom": 3467,
      "##aaa": 3468,
      "padha": 3469,
      "barab": 3470,
      "dikhaye": 3471,
      "bhonk": 3472,
      "kashmeer": 3473,
      "chutia": 3474,
      "milti": 3475,
      "akshay": 3476,
      "thoo": 3477,
      "chip": 3478,
      "chiz": 3479,
      "ladne": 3480,
      "kiski": 3481,
      "##tting": 3482,
      "dalle": 3483,
      "maarte": 3484,
      "policy": 3485,
      "jeeta": 3486,
      "katy": 3487,
      "##,,,,": 3488,
      "burai": 3489,
      "transa": 3490,
      "sochte": 3491,
      "chehra": 3492,
      "achhe": 3493,
      "jaruri": 3494,
      "likhe": 3495,
      "likhna": 3496,
      "farzi": 3497,
      "smj": 3498,
      "smja": 3499,
      "faila": 3500,
      "lagega": 3501,
      "azad": 3502,
      "atankwad": 3503,
      "ayegi": 3504,
      "bhra": 3505,
      "puchna": 3506,
      "kasam": 3507,
      "bhosdike": 3508,
      "##stem": 3509,
      "aarop": 3510,
      "pichle": 3511,
      "mahila": 3512,
      "bhartiyo": 3513,
      "chahia": 3514,
      "tukde": 3515,
      "tmhare": 3516,
      "bengal": 3517,
      "airtel": 3518,
      "crpf": 3519,
      "chahye": 3520,
      "tym": 3521,
      "hitl": 3522,
      "hatao": 3523,
      "lanat": 3524,
      "haramkhor": 3525,
      "serious": 3526,
      "ijjat": 3527,
      "dhamki": 3528,
      "digital": 3529,
      "development": 3530,
      "against": 3531,
      "great": 3532,
      "transaction": 3533,
      "(@": 3534,
      ".*": 3535,
      "180": 3536,
      "22": 3537,
      "400": 3538,
      "71": 3539,
      "98": 3540,
      "ai": 3541,
      "aman": 3542,
      "bdi": 3543,
      "bero": 3544,
      "cle": 3545,
      "chle": 3546,
      "dis": 3547,
      "data": 3548,
      "dkh": 3549,
      "fati": 3550,
      "gor": 3551,
      "jes": 3552,
      "jhot": 3553,
      "mak": 3554,
      "phe": 3555,
      "tas": 3556,
      "vande": 3557,
      "##uga": 3558,
      "##ngi": 3559,
      "##ey": 3560,
      "##lye": 3561,
      "##10": 3562,
      "##sab": 3563,
      "##vation": 3564,
      "##jali": 3565,
      "##br": 3566,
      "##60": 3567,
      "##qa": 3568,
      "##30": 3569,
      "##aiye": 3570,
      "##atar": 3571,
      "kahta": 3572,
      "kafir": 3573,
      "kary": 3574,
      "memb": 3575,
      "means": 3576,
      "dep": 3577,
      "naj": 3578,
      "napak": 3579,
      "nasal": 3580,
      "kehna": 3581,
      "##tesh": 3582,
      "##naam": 3583,
      "sahadat": 3584,
      "##ties": 3585,
      "##hare": 3586,
      "##ervation": 3587,
      "##gaye": 3588,
      "##chha": 3589,
      "chain": 3590,
      "chali": 3591,
      "chacha": 3592,
      "bhikh": 3593,
      "high": 3594,
      "more": 3595,
      "moka": 3596,
      "mooh": 3597,
      "##rega": 3598,
      "bhaj": 3599,
      "bhasa": 3600,
      "map": 3601,
      "##tant": 3602,
      "abki": 3603,
      "##lay": 3604,
      "pakde": 3605,
      "tumse": 3606,
      "haz": 3607,
      "hawa": 3608,
      "hazar": 3609,
      "gao": 3610,
      "gaur": 3611,
      "head": 3612,
      "bandar": 3613,
      "##wao": 3614,
      "lee": 3615,
      "lege": 3616,
      "legi": 3617,
      "khaa": 3618,
      "khala": 3619,
      "jita": 3620,
      "aapse": 3621,
      "rahen": 3622,
      "wohi": 3623,
      "uncle": 3624,
      "thali": 3625,
      "humlog": 3626,
      "##oos": 3627,
      "saram": 3628,
      "sarab": 3629,
      "chote": 3630,
      "waste": 3631,
      "##wani": 3632,
      "##sthan": 3633,
      "mans": 3634,
      "take": 3635,
      "takleef": 3636,
      "pop": 3637,
      "poll": 3638,
      "cont": 3639,
      "kamal": 3640,
      "bill": 3641,
      "bihari": 3642,
      "##asha": 3643,
      "rakhte": 3644,
      "bhoot": 3645,
      "chalu": 3646,
      "bheek": 3647,
      "chhu": 3648,
      "madad": 3649,
      "milna": 3650,
      "milkar": 3651,
      "nikle": 3652,
      "thode": 3653,
      "share": 3654,
      "sbse": 3655,
      "bataya": 3656,
      "fauj": 3657,
      "##hrukh": 3658,
      "pig": 3659,
      "allow": 3660,
      "kerte": 3661,
      "atm": 3662,
      "naksha": 3663,
      "gener": 3664,
      "ndtvvide": 3665,
      "nikalne": 3666,
      "exper": 3667,
      "spons": 3668,
      "sonia": 3669,
      "aayegi": 3670,
      "dilli": 3671,
      "agen": 3672,
      "##now": 3673,
      "system": 3674,
      "wife": 3675,
      "press": 3676,
      "srkar": 3677,
      "pooch": 3678,
      "chudai": 3679,
      "aese": 3680,
      "##hhhh": 3681,
      "reservation": 3682,
      "prime": 3683,
      "umar": 3684,
      "atankiyon": 3685,
      "##ority": 3686,
      "jawaano": 3687,
      "rail": 3688,
      "baccho": 3689,
      "missile": 3690,
      "devsena": 3691,
      "reports": 3692,
      "lute": 3693,
      "##medari": 3694,
      "geeli": 3695,
      "##weeted": 3696,
      "bhagao": 3697,
      "besharm": 3698,
      "cell": 3699,
      "sambhal": 3700,
      "open": 3701,
      "lambi": 3702,
      "behno": 3703,
      "english": 3704,
      "rastra": 3705,
      "porkistan": 3706,
      "doran": 3707,
      "jrur": 3708,
      "napun": 3709,
      "machine": 3710,
      "bunta": 3711,
      "patroling": 3712,
      "retweeted": 3713,
      "dialogue": 3714,
      "invest": 3715,
      "hafiz": 3716,
      "ndtvvideos": 3717,
      ",.": 3718,
      "-----------------": 3719,
      "21": 3720,
      "35": 3721,
      "40": 3722,
      "90": 3723,
      "ate": 3724,
      "aik": 3725,
      "bk": 3726,
      "bre": 3727,
      "bale": 3728,
      "blam": 3729,
      "chiye": 3730,
      "dna": 3731,
      "eh": 3732,
      "eid": 3733,
      "fan": 3734,
      "fri": 3735,
      "fee": 3736,
      "fut": 3737,
      "gate": 3738,
      "hd": 3739,
      "ipl": 3740,
      "jus": 3741,
      "kdi": 3742,
      "ld": 3743,
      "lane": 3744,
      "link": 3745,
      "non": 3746,
      "phat": 3747,
      "sata": 3748,
      "wha": 3749,
      "wrna": 3750,
      "zi": 3751,
      "##aha": 3752,
      "##aal": 3753,
      "##ugh": 3754,
      "##rs": 3755,
      "##llah": 3756,
      "##ose": 3757,
      "##out": 3758,
      "##cr": 3759,
      "##cch": 3760,
      "##ber": 3761,
      "##43": 3762,
      "##qi": 3763,
      "##35": 3764,
      "##aish": 3765,
      "haider": 3766,
      "##atan": 3767,
      "kavi": 3768,
      "kahna": 3769,
      "koy": 3770,
      "koum": 3771,
      "hoke": 3772,
      "##aman": 3773,
      "karde": 3774,
      "karty": 3775,
      "mer": 3776,
      "ment": 3777,
      "dedo": 3778,
      "keliye": 3779,
      "##tachar": 3780,
      "babu": 3781,
      "seek": 3782,
      "jaake": 3783,
      "##isa": 3784,
      "safa": 3785,
      "saeed": 3786,
      "rash": 3787,
      "##adhi": 3788,
      "##ono": 3789,
      "##erna": 3790,
      "chand": 3791,
      "net": 3792,
      "mor": 3793,
      "molana": 3794,
      "##ress": 3795,
      "bhan": 3796,
      "##tani": 3797,
      "##iki": 3798,
      "pakda": 3799,
      "pakist": 3800,
      "muj": 3801,
      "mull": 3802,
      "tume": 3803,
      "kri": 3804,
      "isra": 3805,
      "islye": 3806,
      "gaane": 3807,
      "banne": 3808,
      "part": 3809,
      "bei": 3810,
      "paap": 3811,
      "pahen": 3812,
      "pagla": 3813,
      "dila": 3814,
      "##rah": 3815,
      "##rahe": 3816,
      "sabke": 3817,
      "##koof": 3818,
      "huwe": 3819,
      "##sign": 3820,
      "dog": 3821,
      "domin": 3822,
      "doctor": 3823,
      "tut": 3824,
      "tujh": 3825,
      "##riti": 3826,
      "subha": 3827,
      "sudh": 3828,
      "supre": 3829,
      "sardar": 3830,
      "anpad": 3831,
      "reg": 3832,
      "##wana": 3833,
      "armi": 3834,
      "come": 3835,
      "##ulation": 3836,
      "south": 3837,
      "dikkat": 3838,
      "aish": 3839,
      "congresi": 3840,
      "sahido": 3841,
      "rakhne": 3842,
      "pada": 3843,
      "barbar": 3844,
      "chalne": 3845,
      "chalane": 3846,
      "##llal": 3847,
      "chla": 3848,
      "chris": 3849,
      "tmlog": 3850,
      "##ppy": 3851,
      "kiska": 3852,
      "kisiko": 3853,
      "dharti": 3854,
      "daud": 3855,
      "jawaab": 3856,
      "chodu": 3857,
      "naman": 3858,
      "##------": 3859,
      "##hru": 3860,
      "siwa": 3861,
      "burnol": 3862,
      "trp": 3863,
      "sochne": 3864,
      "sochna": 3865,
      "achchi": 3866,
      "##itter": 3867,
      "satya": 3868,
      "bsf": 3869,
      "buj": 3870,
      "charcha": 3871,
      "should": 3872,
      "skty": 3873,
      "vaha": 3874,
      "fouj": 3875,
      "hamesa": 3876,
      "kharid": 3877,
      "galiya": 3878,
      "ramay": 3879,
      "aadat": 3880,
      "bachane": 3881,
      "right": 3882,
      "bachy": 3883,
      "kurty": 3884,
      "bolenge": 3885,
      "rehti": 3886,
      "bhadwe": 3887,
      "ghor": 3888,
      "gujarat": 3889,
      "budget": 3890,
      "kehty": 3891,
      "shanam": 3892,
      "mazak": 3893,
      "mudde": 3894,
      "fight": 3895,
      "mamta": 3896,
      "mamle": 3897,
      "jagha": 3898,
      "hisaab": 3899,
      "loog": 3900,
      "varna": 3901,
      "awam": 3902,
      "##clear": 3903,
      "becharon": 3904,
      "jwano": 3905,
      "katappa": 3906,
      "supporters": 3907,
      "muslmano": 3908,
      "civi": 3909,
      "educ": 3910,
      "aour": 3911,
      "rajasthan": 3912,
      "watch": 3913,
      "natak": 3914,
      "vichar": 3915,
      "nuksan": 3916,
      "beech": 3917,
      "ungli": 3918,
      "kanhaiya": 3919,
      "fateh": 3920,
      "college": 3921,
      "image": 3922,
      "twitter": 3923,
      "israel": 3924,
      "christian": 3925,
      "72": 3926,
      "91": 3927,
      "bath": 3928,
      "cla": 3929,
      "date": 3930,
      "dudh": 3931,
      "ed": 3932,
      "fad": 3933,
      "fud": 3934,
      "gale": 3935,
      "gri": 3936,
      "gati": 3937,
      "gana": 3938,
      "gher": 3939,
      "hate": 3940,
      "ic": 3941,
      "idi": 3942,
      "jari": 3943,
      "jwab": 3944,
      "ksi": 3945,
      "kati": 3946,
      "kand": 3947,
      "lala": 3948,
      "nala": 3949,
      "phu": 3950,
      "ry": 3951,
      "run": 3952,
      "rand": 3953,
      "rank": 3954,
      "ste": 3955,
      "sti": 3956,
      "tali": 3957,
      "umeed": 3958,
      "vs": 3959,
      "vap": 3960,
      "zul": 3961,
      "##ae": 3962,
      "##esh": 3963,
      "##r_": 3964,
      "##lli": 3965,
      "##if": 3966,
      "##tna": 3967,
      "##ture": 3968,
      "##pus": 3969,
      "##vai": 3970,
      "##ju": 3971,
      "##bl": 3972,
      "##_cor": 3973,
      "##_ms": 3974,
      "##48": 3975,
      "##aram": 3976,
      "##hay": 3977,
      "##air": 3978,
      "koh": 3979,
      "hosh": 3980,
      "karate": 3981,
      "karlo": 3982,
      "karane": 3983,
      "kardo": 3984,
      "mene": 3985,
      "kesi": 3986,
      "tor": 3987,
      "##urnal": 3988,
      "saj": 3989,
      "rahne": 3990,
      "##onga": 3991,
      "bhikari": 3992,
      "himat": 3993,
      "mohab": 3994,
      "bhains": 3995,
      "bhallal": 3996,
      "maal": 3997,
      "about": 3998,
      "##lag": 3999,
      "##laf": 4000,
      "##daan": 4001,
      "kuta": 4002,
      "mula": 4003,
      "hasi": 4004,
      "have": 4005,
      "krr": 4006,
      "krni": 4007,
      "gawar": 4008,
      "hehehe": 4009,
      "journal": 4010,
      "bante": 4011,
      "bangal": 4012,
      "banega": 4013,
      "pel": 4014,
      "payega": 4015,
      "leye": 4016,
      "laya": 4017,
      "##ssia": 4018,
      "kham": 4019,
      "##raha": 4020,
      "jihadi": 4021,
      "doodh": 4022,
      "sul": 4023,
      "sus": 4024,
      "samman": 4025,
      "##say": 4026,
      "##ook": 4027,
      "anda": 4028,
      "reha": 4029,
      "resign": 4030,
      "aram": 4031,
      "##chaar": 4032,
      "##roh": 4033,
      "agle": 4034,
      "##eee": 4035,
      "##eeb": 4036,
      "shahrukh": 4037,
      "mant": 4038,
      "mange": 4039,
      "niyam": 4040,
      "khuli": 4041,
      "kamai": 4042,
      "badnaam": 4043,
      "some": 4044,
      "bhartiya": 4045,
      "goa": 4046,
      "voh": 4047,
      "##baan": 4048,
      "##dians": 4049,
      "pradhan": 4050,
      "match": 4051,
      "acchi": 4052,
      "kartey": 4053,
      "paiso": 4054,
      "dikhai": 4055,
      "bhon": 4056,
      "chalte": 4057,
      "chalti": 4058,
      "##llll": 4059,
      "upper": 4060,
      "milke": 4061,
      "vipaksh": 4062,
      "nikkam": 4063,
      "bakwaas": 4064,
      "galt": 4065,
      "sbhi": 4066,
      "sansad": 4067,
      "suno": 4068,
      "sunna": 4069,
      "sunny": 4070,
      "dalla": 4071,
      "namaz": 4072,
      "tiwari": 4073,
      "darpok": 4074,
      "##olan": 4075,
      "pathan": 4076,
      "sign": 4077,
      "lagaya": 4078,
      "prote": 4079,
      "profi": 4080,
      "jaayega": 4081,
      "##bhav": 4082,
      "dusman": 4083,
      "##gardi": 4084,
      "aatma": 4085,
      "skti": 4086,
      "issue": 4087,
      "jub": 4088,
      "jayga": 4089,
      "chutya": 4090,
      "desho": 4091,
      "apps": 4092,
      "after": 4093,
      "khra": 4094,
      "##--------------": 4095,
      "murkh": 4096,
      "dimaag": 4097,
      "bewkuf": 4098,
      "rahti": 4099,
      "1965": 4100,
      "##heel": 4101,
      "btao": 4102,
      "fire": 4103,
      "jago": 4104,
      "russia": 4105,
      "statement": 4106,
      "baccha": 4107,
      "dekhenge": 4108,
      "136": 4109,
      "tamasha": 4110,
      "bechare": 4111,
      "geeta": 4112,
      "jaroorat": 4113,
      "facebook_cor": 4114,
      "irfan": 4115,
      "bdla": 4116,
      "etc": 4117,
      "option": 4118,
      "play": 4119,
      "pille": 4120,
      "ilzam": 4121,
      "central": 4122,
      "pahuch": 4123,
      "pakistaan": 4124,
      "chaddi": 4125,
      "biswas": 4126,
      "mohammad": 4127,
      "quran": 4128,
      "officer": 4129,
      "##pital": 4130,
      "credit": 4131,
      "sorry": 4132,
      "android": 4133,
      "member": 4134,
      "railway": 4135,
      "investment": 4136,
      "-------------------------------": 4137,
      "blame": 4138,
      "supreme": 4139,
      "idiot": 4140,
      "##pus_ms": 4141,
      "bhallaldev": 4142,
      "facebook_corpus_ms": 4143,
      "facebook_corpus_msr_": 4144,
      "***": 4145,
      "16": 4146,
      "4⃣": 4147,
      "asan": 4148,
      "cer": 4149,
      "dm": 4150,
      "daa": 4151,
      "danga": 4152,
      "ent": 4153,
      "gh": 4154,
      "gane": 4155,
      "jali": 4156,
      "kl": 4157,
      "ks": 4158,
      "kt": 4159,
      "kale": 4160,
      "kate": 4161,
      "lgi": 4162,
      "nare": 4163,
      "om": 4164,
      "old": 4165,
      "phan": 4166,
      "rkha": 4167,
      "room": 4168,
      "sty": 4169,
      "spe": 4170,
      "speaker": 4171,
      "tun": 4172,
      "utt": 4173,
      "vali": 4174,
      "wade": 4175,
      "yai": 4176,
      "yud": 4177,
      "##ahi": 4178,
      "##mari": 4179,
      "##mission": 4180,
      "##ude": 4181,
      "##ution": 4182,
      "##nai": 4183,
      "##date": 4184,
      "##dari": 4185,
      "##room": 4186,
      "##17": 4187,
      "##sla": 4188,
      "##chiye": 4189,
      "##ved": 4190,
      "##yya": 4191,
      "##zan": 4192,
      "##bak": 4193,
      "##bin": 4194,
      "##bul": 4195,
      "##67": 4196,
      "##wali": 4197,
      "##far": 4198,
      "##aty": 4199,
      "##als": 4200,
      "kin": 4201,
      "kaar": 4202,
      "kasa": 4203,
      "kame": 4204,
      "##ako": 4205,
      "##akat": 4206,
      "##diye": 4207,
      "how": 4208,
      "house": 4209,
      "kariye": 4210,
      "##ince": 4211,
      "nas": 4212,
      "keval": 4213,
      "total": 4214,
      "##taa": 4215,
      "##tao": 4216,
      "##tav": 4217,
      "bachi": 4218,
      "##nah": 4219,
      "##nav": 4220,
      "seh": 4221,
      "jayada": 4222,
      "##iss": 4223,
      "saha": 4224,
      "sawa": 4225,
      "rae": 4226,
      "ravi": 4227,
      "raaz": 4228,
      "##tiye": 4229,
      "##shma": 4230,
      "aay": 4231,
      "aaja": 4232,
      "chau": 4233,
      "chate": 4234,
      "chaap": 4235,
      "chapp": 4236,
      "chanel": 4237,
      "ney": 4238,
      "next": 4239,
      "nehru": 4240,
      "mode": 4241,
      "bhaag": 4242,
      "maho": 4243,
      "mafi": 4244,
      "aby": 4245,
      "##lick": 4246,
      "##lication": 4247,
      "mun": 4248,
      "tumara": 4249,
      "haf": 4250,
      "hajam": 4251,
      "happy": 4252,
      "kris": 4253,
      "gaay": 4254,
      "joke": 4255,
      "marwa": 4256,
      "##hani": 4257,
      "banda": 4258,
      "##ense": 4259,
      "##ortant": 4260,
      "##waar": 4261,
      "param": 4262,
      "bey": 4263,
      "pehen": 4264,
      "paye": 4265,
      "lea": 4266,
      "lav": 4267,
      "ladi": 4268,
      "yadi": 4269,
      "khayal": 4270,
      "aapas": 4271,
      "huva": 4272,
      "##karta": 4273,
      "dosti": 4274,
      "rahege": 4275,
      "##ria": 4276,
      "##ries": 4277,
      "suvar": 4278,
      "##sadi": 4279,
      "miya": 4280,
      "bolu": 4281,
      "##medar": 4282,
      "chota": 4283,
      "janch": 4284,
      "wadi": 4285,
      "rea": 4286,
      "muslam": 4287,
      "##stha": 4288,
      "shaadi": 4289,
      "khusi": 4290,
      "badhai": 4291,
      "soche": 4292,
      "bhara": 4293,
      "##gress": 4294,
      "##chood": 4295,
      "bibi": 4296,
      "sarkari": 4297,
      "vot": 4298,
      "voting": 4299,
      "##baj": 4300,
      "##baz": 4301,
      "tabi": 4302,
      "andr": 4303,
      "dikhayenge": 4304,
      "rhenge": 4305,
      "stri": 4306,
      "bhosadi": 4307,
      "jisme": 4308,
      "bheje": 4309,
      "aajtak": 4310,
      "pucha": 4311,
      "pakistanio": 4312,
      "milte": 4313,
      "ladke": 4314,
      "salay": 4315,
      "salaam": 4316,
      "sunne": 4317,
      "dall": 4318,
      "kroge": 4319,
      "jeete": 4320,
      "guss": 4321,
      "tel": 4322,
      "pila": 4323,
      "side": 4324,
      "khoj": 4325,
      "##htar": 4326,
      "buri": 4327,
      "trans": 4328,
      "##ship": 4329,
      "##ngy": 4330,
      "achche": 4331,
      "ajj": 4332,
      "ajam": 4333,
      "tarf": 4334,
      "prabha": 4335,
      "sport": 4336,
      "maloom": 4337,
      "fekna": 4338,
      "hatho": 4339,
      "terrorism": 4340,
      "faida": 4341,
      "dhoke": 4342,
      "dhoka": 4343,
      "bachao": 4344,
      "milenge": 4345,
      "application": 4346,
      "afri": 4347,
      "bika": 4348,
      "bachho": 4349,
      "billi": 4350,
      "chhodo": 4351,
      "countries": 4352,
      "chunaav": 4353,
      "buddha": 4354,
      "premi": 4355,
      "dhang": 4356,
      "maze": 4357,
      "pehli": 4358,
      "cross": 4359,
      "mamu": 4360,
      "250": 4361,
      "adhik": 4362,
      "esay": 4363,
      "sadak": 4364,
      "jindabad": 4365,
      "seats": 4366,
      "tmhary": 4367,
      "bahane": 4368,
      "birth": 4369,
      "wapis": 4370,
      "narendra": 4371,
      "bhagwaat": 4372,
      "akela": 4373,
      "irani": 4374,
      "nuclear": 4375,
      "joota": 4376,
      "paidaish": 4377,
      "pahucha": 4378,
      "store": 4379,
      "##deep": 4380,
      "reply": 4381,
      "gumrah": 4382,
      "##grik": 4383,
      "hospital": 4384,
      "shabd": 4385,
      "imandar": 4386,
      "personal": 4387,
      "maderchod": 4388,
      "econo": 4389,
      "tweet": 4390,
      "activate": 4391,
      "afghanistan": 4392,
      "fursat": 4393,
      "##render": 4394,
      "hazare": 4395,
      "napunsak": 4396,
      "future": 4397,
      "safaya": 4398,
      "ramayan": 4399,
      "educated": 4400,
      "aal": 4401,
      "ash": 4402,
      "aara": 4403,
      "agaya": 4404,
      "bne": 4405,
      "byan": 4406,
      "cen": 4407,
      "call": 4408,
      "dhul": 4409,
      "foot": 4410,
      "gud": 4411,
      "hare": 4412,
      "jul": 4413,
      "khte": 4414,
      "lana": 4415,
      "lang": 4416,
      "long": 4417,
      "ms": 4418,
      "mum": 4419,
      "mish": 4420,
      "phen": 4421,
      "pine": 4422,
      "pdega": 4423,
      "qab": 4424,
      "ruk": 4425,
      "rhte": 4426,
      "tyar": 4427,
      "two": 4428,
      "vha": 4429,
      "who": 4430,
      "yak": 4431,
      "zam": 4432,
      "##mul": 4433,
      "##dat": 4434,
      "##don": 4435,
      "##ela": 4436,
      "##lai": 4437,
      "##lat": 4438,
      "##lti": 4439,
      "##lon": 4440,
      "##late": 4441,
      "##kana": 4442,
      "##ger": 4443,
      "##ide": 4444,
      "##83": 4445,
      "##sho": 4446,
      "##tam": 4447,
      "##tte": 4448,
      "##ven": 4449,
      "##zab": 4450,
      "##bara": 4451,
      "##band": 4452,
      "##bot": 4453,
      "##64": 4454,
      "##ws": 4455,
      "##95": 4456,
      "##92": 4457,
      "kidhar": 4458,
      "kau": 4459,
      "kom": 4460,
      "##hey": 4461,
      "howa": 4462,
      "kardiya": 4463,
      "dear": 4464,
      "deke": 4465,
      "kero": 4466,
      "bahu": 4467,
      "bass": 4468,
      "bahn": 4469,
      "##urs": 4470,
      "self": 4471,
      "jase": 4472,
      "saa": 4473,
      "sahan": 4474,
      "saari": 4475,
      "savi": 4476,
      "sachi": 4477,
      "sachai": 4478,
      "##adh": 4479,
      "##tive": 4480,
      "##chh": 4481,
      "aafi": 4482,
      "aagaya": 4483,
      "chata": 4484,
      "##gey": 4485,
      "nepal": 4486,
      "loge": 4487,
      "##red": 4488,
      "##res": 4489,
      "bhav": 4490,
      "much": 4491,
      "muka": 4492,
      "mutt": 4493,
      "muham": 4494,
      "tumhri": 4495,
      "haj": 4496,
      "kyaa": 4497,
      "boht": 4498,
      "jor": 4499,
      "marji": 4500,
      "marzi": 4501,
      "banke": 4502,
      "##enda": 4503,
      "limit": 4504,
      "##waj": 4505,
      "pare": 4506,
      "parta": 4507,
      "bev": 4508,
      "bewa": 4509,
      "betha": 4510,
      "pahale": 4511,
      "khaane": 4512,
      "##ray": 4513,
      "##raf": 4514,
      "door": 4515,
      "doll": 4516,
      "rahey": 4517,
      "uno": 4518,
      "samil": 4519,
      "thaa": 4520,
      "humari": 4521,
      "anu": 4522,
      "jankari": 4523,
      "jannat": 4524,
      "wasi": 4525,
      "##arah": 4526,
      "##eek": 4527,
      "mann": 4528,
      "poori": 4529,
      "control": 4530,
      "niti": 4531,
      "niche": 4532,
      "khus": 4533,
      "khule": 4534,
      "kamar": 4535,
      "kamina": 4536,
      "kamino": 4537,
      "saka": 4538,
      "gosht": 4539,
      "dikhe": 4540,
      "dikhega": 4541,
      "harne": 4542,
      "jayege": 4543,
      "##chor": 4544,
      "baten": 4545,
      "##cess": 4546,
      "##bazi": 4547,
      "tabha": 4548,
      "##aay": 4549,
      "purane": 4550,
      "stud": 4551,
      "chalana": 4552,
      "bhed": 4553,
      "##shab": 4554,
      "chur": 4555,
      "upr": 4556,
      "##ters": 4557,
      "gayee": 4558,
      "multi": 4559,
      "akhari": 4560,
      "nikli": 4561,
      "ladte": 4562,
      "ladka": 4563,
      "kishan": 4564,
      "dharna": 4565,
      "bhago": 4566,
      "bakchodi": 4567,
      "surrender": 4568,
      "chodte": 4569,
      "suni": 4570,
      "maarna": 4571,
      "tadi": 4572,
      "faad": 4573,
      "fasi": 4574,
      "fact": 4575,
      "pit": 4576,
      "khoob": 4577,
      "prof": 4578,
      "proud": 4579,
      "produ": 4580,
      "konsa": 4581,
      "dua": 4582,
      "jehadi": 4583,
      "trha": 4584,
      "kerne": 4585,
      "kejari": 4586,
      "##ational": 4587,
      "bhakton": 4588,
      "maroge": 4589,
      "online": 4590,
      "##cide": 4591,
      "vahi": 4592,
      "vadi": 4593,
      "jaante": 4594,
      "tarak": 4595,
      "pragati": 4596,
      "spee": 4597,
      "speed": 4598,
      "goverment": 4599,
      "song": 4600,
      "shree": 4601,
      "shyad": 4602,
      "aayenge": 4603,
      "smjhe": 4604,
      "2017": 4605,
      "minute": 4606,
      "bnaya": 4607,
      "chaheye": 4608,
      "aukad": 4609,
      "murder": 4610,
      "fatwa": 4611,
      "majak": 4612,
      "kahenge": 4613,
      "hijda": 4614,
      "hijde": 4615,
      "hijdo": 4616,
      "prem": 4617,
      "shant": 4618,
      "pehla": 4619,
      "pichw": 4620,
      "##stitu": 4621,
      "result": 4622,
      "##iii": 4623,
      "bewakuf": 4624,
      "jhag": 4625,
      "ladkiyo": 4626,
      "jammu": 4627,
      "chahiy": 4628,
      "##rrrr": 4629,
      "lootne": 4630,
      "loote": 4631,
      "bacche": 4632,
      "tukre": 4633,
      "hahahahahaha": 4634,
      "type": 4635,
      "taiyar": 4636,
      "tameez": 4637,
      "akele": 4638,
      "ghotale": 4639,
      "##================": 4640,
      "beguna": 4641,
      "earn": 4642,
      "khtam": 4643,
      "gundagardi": 4644,
      "##\u0000\u0000\u0000\u0000\u0000\u0000\u0000\u0000\u0000\u0000\u0000\u0000\u0000\u0000\u0000\u0000\u0000\u0000\u0000\u0000\u0000\u0000\u0000\u0000\u0000\u0000\u0000\u0000\u0000\u0000\u0000\u0000\u0000\u0000\u0000\u0000\u0000\u0000\u0000\u0000\u0000\u0000\u0000\u0000\u0000\u0000\u0000\u0000\u0000\u0000\u0000\u0000\u0000\u0000\u0000\u0000\u0000\u0000\u0000\u0000\u0000\u0000\u0000\u0000\u0000\u0000\u0000\u0000\u0000\u0000\u0000\u0000\u0000\u0000\u0000\u0000\u0000\u0000\u0000\u0000\u0000\u0000\u0000\u0000\u0000\u0000\u0000\u0000\u0000\u0000\u0000\u0000\u0000\u0000\u0000\u0000\u0000\u0000\u0000\u0000\u0000\u0000\u0000\u0000\u0000\u0000\u0000\u0000\u0000\u0000\u0000\u0000\u0000\u0000\u0000\u0000\u0000\u0000\u0000\u0000\u0000\u0000\u0000\u0000\u0000\u0000\u0000\u0000\u0000\u0000\u0000\u0000\u0000\u0000\u0000\u0000\u0000\u0000\u0000\u0000\u0000\u0000\u0000\u0000\u0000\u0000\u0000\u0000\u0000\u0000\u0000\u0000\u0000\u0000\u0000\u0000\u0000\u0000\u0000\u0000\u0000\u0000\u0000\u0000\u0000\u0000\u0000\u0000\u0000\u0000\u0000\u0000\u0000\u0000\u0000\u0000\u0000\u0000\u0000\u0000\u0000\u0000\u0000\u0000\u0000\u0000\u0000\u0000\u0000\u0000\u0000\u0000\u0000\u0000\u0000\u0000\u0000\u0000\u0000\u0000\u0000\u0000\u0000\u0000\u0000\u0000\u0000\u0000\u0000\u0000\u0000\u0000\u0000\u0000\u0000\u0000\u0000\u0000\u0000\u0000\u0000\u0000\u0000\u0000\u0000\u0000\u0000\u0000\u0000\u0000\u0000\u0000\u0000\u0000\u0000\u0000\u0000\u0000\u0000\u0000\u0000\u0000\u0000\u0000\u0000\u0000\u0000\u0000\u0000\u0000\u0000\u0000\u0000\u0000\u0000\u0000": 4645,
      "naxali": 4646,
      "istemal": 4647,
      "deshbhakt": 4648,
      "akaon": 4649,
      "khalistan": 4650,
      "afsos": 4651,
      "indira": 4652,
      "##unity": 4653,
      "pahuncha": 4654,
      "important": 4655,
      "kiyu": 4656,
      "value": 4657,
      "chheee": 4658,
      "kamjor": 4659,
      "clear": 4660,
      "population": 4661,
      "nakshali": 4662,
      "general": 4663,
      "mullon": 4664,
      "barbarta": 4665,
      "journalist": 4666,
      "style": 4667,
      "mishra": 4668,
      "#########": 4669,
      ").": 4670,
      "**": 4671,
      ".,": 4672,
      "ameer": 4673,
      "blo": 4674,
      "bund": 4675,
      "cn": 4676,
      "cy": 4677,
      "cal": 4678,
      "cake": 4679,
      "dara": 4680,
      "dhr": 4681,
      "ea": 4682,
      "ela": 4683,
      "emp": 4684,
      "elan": 4685,
      "fam": 4686,
      "fre": 4687,
      "game": 4688,
      "ig": 4689,
      "iti": 4690,
      "idhar": 4691,
      "ips": 4692,
      "idea": 4693,
      "jh": 4694,
      "jhe": 4695,
      "kv": 4696,
      "ob": 4697,
      "oper": 4698,
      "pandi": 4699,
      "qat": 4700,
      "qki": 4701,
      "rate": 4702,
      "rana": 4703,
      "rhta": 4704,
      "rhne": 4705,
      "sind": 4706,
      "siya": 4707,
      "sine": 4708,
      "tin": 4709,
      "thar": 4710,
      "taj": 4711,
      "tami": 4712,
      "tama": 4713,
      "ukha": 4714,
      "vya": 4715,
      "wada": 4716,
      "##aq": 4717,
      "##aya": 4718,
      "##ach": 4719,
      "##aare": 4720,
      "##mak": 4721,
      "##mon": 4722,
      "##mer": 4723,
      "##mand": 4724,
      "##uda": 4725,
      "##nki": 4726,
      "##ds": 4727,
      "##ddi": 4728,
      "##rd": 4729,
      "##lum": 4730,
      "##lata": 4731,
      "##odi": 4732,
      "##kin": 4733,
      "##gari": 4734,
      "##gami": 4735,
      "##ited": 4736,
      "##12": 4737,
      "##sing": 4738,
      "##cb": 4739,
      "##pm": 4740,
      "##pri": 4741,
      "##vaa": 4742,
      "##jud": 4743,
      "##zal": 4744,
      "##bhu": 4745,
      "##bla": 4746,
      "##fo": 4747,
      "##96": 4748,
      "##haar": 4749,
      "##hind": 4750,
      "haii": 4751,
      "##ato": 4752,
      "kim": 4753,
      "kii": 4754,
      "kiun": 4755,
      "king": 4756,
      "kaan": 4757,
      "kaala": 4758,
      "kade": 4759,
      "koo": 4760,
      "hoa": 4761,
      "##amar": 4762,
      "karle": 4763,
      "medal": 4764,
      "deh": 4765,
      "dede": 4766,
      "dety": 4767,
      "##ines": 4768,
      "nae": 4769,
      "nagrik": 4770,
      "tom": 4771,
      "toi": 4772,
      "toot": 4773,
      "baaz": 4774,
      "##nae": 4775,
      "##hod": 4776,
      "jaal": 4777,
      "##ision": 4778,
      "sac": 4779,
      "saat": 4780,
      "##\u0000\u0000\u0000": 4781,
      "##hary": 4782,
      "inno": 4783,
      "inform": 4784,
      "yek": 4785,
      "aaa": 4786,
      "aae": 4787,
      "aacha": 4788,
      "movi": 4789,
      "move": 4790,
      "##reen": 4791,
      "##ready": 4792,
      "bhat": 4793,
      "maf": 4794,
      "maat": 4795,
      "abba": 4796,
      "apn": 4797,
      "ku6": 4798,
      "muja": 4799,
      "mubar": 4800,
      "mukh": 4801,
      "hajar": 4802,
      "bom": 4803,
      "bos": 4804,
      "gadi": 4805,
      "gaana": 4806,
      "lijiye": 4807,
      "##waad": 4808,
      "para": 4809,
      "pesa": 4810,
      "pag": 4811,
      "payenge": 4812,
      "leti": 4813,
      "diji": 4814,
      "laa": 4815,
      "lash": 4816,
      "##alega": 4817,
      "aapna": 4818,
      "hukum": 4819,
      "##sio": 4820,
      "##sit": 4821,
      "hamary": 4822,
      "hindo": 4823,
      "hindoo": 4824,
      "dosh": 4825,
      "sud": 4826,
      "super": 4827,
      "samja": 4828,
      "samas": 4829,
      "jait": 4830,
      "rahahe": 4831,
      "thaali": 4832,
      "dekr": 4833,
      "##alim": 4834,
      "jani": 4835,
      "way": 4836,
      "waali": 4837,
      "recor": 4838,
      "cop": 4839,
      "agli": 4840,
      "agra": 4841,
      "shami": 4842,
      "shaikh": 4843,
      "manga": 4844,
      "##lot": 4845,
      "apney": 4846,
      "badlo": 4847,
      "sako": 4848,
      "sakty": 4849,
      "##limited": 4850,
      "its": 4851,
      "batane": 4852,
      "##baaz": 4853,
      "prat": 4854,
      "prati": 4855,
      "matlb": 4856,
      "matram": 4857,
      "lagne": 4858,
      "lagate": 4859,
      "lagana": 4860,
      "lagakar": 4861,
      "acce": 4862,
      "andolan": 4863,
      "padne": 4864,
      "bardast": 4865,
      "purani": 4866,
      "dikhawa": 4867,
      "tmhe": 4868,
      "tmari": 4869,
      "milne": 4870,
      "##dom": 4871,
      "nikam": 4872,
      "nikalo": 4873,
      "chila": 4874,
      "chodenge": 4875,
      "amma": 4876,
      "ambul": 4877,
      "sant": 4878,
      "aree": 4879,
      "##zaar": 4880,
      "patra": 4881,
      "guna": 4882,
      "sim": 4883,
      "lagaye": 4884,
      "konsi": 4885,
      "duba": 4886,
      "marey": 4887,
      "trai": 4888,
      "cheap": 4889,
      "##garh": 4890,
      "suaro": 4891,
      "ajeeb": 4892,
      "##dhra": 4893,
      "videsh": 4894,
      "atma": 4895,
      "donal": 4896,
      "shikar": 4897,
      "bhugat": 4898,
      "dharmo": 4899,
      "esko": 4900,
      "vahan": 4901,
      "foj": 4902,
      "uthao": 4903,
      "jayda": 4904,
      "enko": 4905,
      "hathon": 4906,
      "ramdev": 4907,
      "kanhiya": 4908,
      "##tary": 4909,
      "jinko": 4910,
      "jinhone": 4911,
      "chahey": 4912,
      "masji": 4913,
      "annaji": 4914,
      "##urity": 4915,
      "##nore": 4916,
      "insano": 4917,
      "kurbani": 4918,
      "laloo": 4919,
      "kaisi": 4920,
      "picture": 4921,
      "##fect": 4922,
      "babaji": 4923,
      "karwaya": 4924,
      "gaandu": 4925,
      "chunao": 4926,
      "bhadwa": 4927,
      "ghoos": 4928,
      "kahega": 4929,
      "karaya": 4930,
      "mango": 4931,
      "wese": 4932,
      "dhanda": 4933,
      "bajwa": 4934,
      "pichhe": 4935,
      "fix": 4936,
      "chahie": 4937,
      "shakti": 4938,
      "##uuu": 4939,
      "##hunga": 4940,
      "security": 4941,
      "kaafi": 4942,
      "kapde": 4943,
      "##ffer": 4944,
      "indus": 4945,
      "saif": 4946,
      "karwate": 4947,
      "sikhaya": 4948,
      "biryani": 4949,
      "hmesha": 4950,
      "##sakta": 4951,
      "diggi": 4952,
      "shivgami": 4953,
      "bulate": 4954,
      "ghuma": 4955,
      "kasmiri": 4956,
      "cashless": 4957,
      "cease": 4958,
      "yuva": 4959,
      "etna": 4960,
      "parties": 4961,
      "corrupt": 4962,
      "balidan": 4963,
      "dange": 4964,
      "rhoge": 4965,
      "joote": 4966,
      "majboor": 4967,
      "sameer": 4968,
      "##********": 4969,
      "judge": 4970,
      "pareshani": 4971,
      "nuksaan": 4972,
      "tension": 4973,
      "mohammed": 4974,
      "final": 4975,
      "vinay": 4976,
      "imandari": 4977,
      "chenal": 4978,
      "glt": 4979,
      "cahiye": 4980,
      "thakur": 4981,
      "fikar": 4982,
      "khujliwal": 4983,
      "andhbhakt": 4984,
      "fuckistaniyo": 4985,
      "patel": 4986,
      "topic": 4987,
      "leni": 4988,
      "decision": 4989,
      "najayaj": 4990,
      "khtay": 4991,
      "zuban": 4992,
      "javab": 4993,
      "bhikhari": 4994,
      "barabar": 4995,
      "hitlar": 4996,
      "##sabha": 4997,
      "mansik": 4998,
      "justif": 4999,
      "dominar": 5000,
      "nikkamme": 5001,
      "khrab": 5002,
      "muhammad": 5003,
      "speech": 5004,
      "famous": 5005,
      "ignore": 5006,
      "mubarak": 5007,
      "samasya": 5008,
      "record": 5009,
      "shamil": 5010,
      "ambulance": 5011,
      "2g": 5012,
      "45": 5013,
      "590": 5014,
      "95": 5015,
      "ada": 5016,
      "asha": 5017,
      "aakar": 5018,
      "aadesh": 5019,
      "bcha": 5020,
      "buk": 5021,
      "care": 5022,
      "cap": 5023,
      "cbi": 5024,
      "cast": 5025,
      "dist": 5026,
      "dkha": 5027,
      "end": 5028,
      "fer": 5029,
      "fuji": 5030,
      "ger": 5031,
      "ghut": 5032,
      "hand": 5033,
      "ija": 5034,
      "imaan": 5035,
      "jra": 5036,
      "jind": 5037,
      "jhat": 5038,
      "jakr": 5039,
      "jurm": 5040,
      "khy": 5041,
      "know": 5042,
      "md": 5043,
      "mre": 5044,
      "math": 5045,
      "nan": 5046,
      "nal": 5047,
      "nata": 5048,
      "nati": 5049,
      "ooo": 5050,
      "oqat": 5051,
      "owai": 5052,
      "pane": 5053,
      "qamar": 5054,
      "roo": 5055,
      "rbi": 5056,
      "shir": 5057,
      "tad": 5058,
      "tana": 5059,
      "taree": 5060,
      "tbah": 5061,
      "ucha": 5062,
      "vh": 5063,
      "wak": 5064,
      "yam": 5065,
      "yani": 5066,
      "##ache": 5067,
      "##mati": 5068,
      "##ught": 5069,
      "##nak": 5070,
      "##ndi": 5071,
      "##nga": 5072,
      "##ena": 5073,
      "##rt": 5074,
      "##ler": 5075,
      "##osh": 5076,
      "##kte": 5077,
      "##kata": 5078,
      "##gg": 5079,
      "##gha": 5080,
      "##gya": 5081,
      "##sn": 5082,
      "##sl": 5083,
      "##tail": 5084,
      "##cu": 5085,
      "##cro": 5086,
      "##cot": 5087,
      "##put": 5088,
      "##zen": 5089,
      "##xx": 5090,
      "##xena": 5091,
      "##57": 5092,
      "##bc": 5093,
      "##bhar": 5094,
      "##46": 5095,
      "##wati": 5096,
      "##91": 5097,
      "##||": 5098,
      "##anha": 5099,
      "##akta": 5100,
      "##hed": 5101,
      "##ament": 5102,
      "karu": 5103,
      "kardi": 5104,
      "karana": 5105,
      "karwane": 5106,
      "deen": 5107,
      "demo": 5108,
      "topi": 5109,
      "baz": 5110,
      "baal": 5111,
      "##nese": 5112,
      "##tes": 5113,
      "setting": 5114,
      "##isgarh": 5115,
      "sas": 5116,
      "sahu": 5117,
      "saxena": 5118,
      "rab": 5119,
      "raam": 5120,
      "##tim": 5121,
      "##tice": 5122,
      "##ont": 5123,
      "##onch": 5124,
      "##gayi": 5125,
      "inhi": 5126,
      "yea": 5127,
      "##gen": 5128,
      "##gee": 5129,
      "loc": 5130,
      "moul": 5131,
      "bhale": 5132,
      "bhand": 5133,
      "mae": 5134,
      "mao": 5135,
      "maak": 5136,
      "mahen": 5137,
      "apr": 5138,
      "apman": 5139,
      "##sen": 5140,
      "##lia": 5141,
      "##liyo": 5142,
      "##liament": 5143,
      "kud": 5144,
      "kuty": 5145,
      "muk": 5146,
      "mush": 5147,
      "musi": 5148,
      "muza": 5149,
      "tumhre": 5150,
      "hasan": 5151,
      "issi": 5152,
      "box": 5153,
      "boss": 5154,
      "bohat": 5155,
      "gajab": 5156,
      "gazab": 5157,
      "marke": 5158,
      "marva": 5159,
      "marny": 5160,
      "bano": 5161,
      "banwa": 5162,
      "banata": 5163,
      "liy": 5164,
      "parliament": 5165,
      "beh": 5166,
      "behas": 5167,
      "pap": 5168,
      "paath": 5169,
      "ley": 5170,
      "left": 5171,
      "didi": 5172,
      "law": 5173,
      "laye": 5174,
      "##ssain": 5175,
      "khab": 5176,
      "khadi": 5177,
      "khati": 5178,
      "khayega": 5179,
      "khamo": 5180,
      "jigar": 5181,
      "sabha": 5182,
      "sabki": 5183,
      "aaps": 5184,
      "chute": 5185,
      "hussain": 5186,
      "##sident": 5187,
      "hamse": 5188,
      "hamri": 5189,
      "ekta": 5190,
      "dogla": 5191,
      "dobara": 5192,
      "tuj": 5193,
      "sushma": 5194,
      "tery": 5195,
      "samaz": 5196,
      "sarhad": 5197,
      "midia": 5198,
      "user": 5199,
      "uspe": 5200,
      "##mes": 5201,
      "##aliya": 5202,
      "chore": 5203,
      "waal": 5204,
      "waalo": 5205,
      "release": 5206,
      "arti": 5207,
      "##chay": 5208,
      "##rough": 5209,
      "sham": 5210,
      "shahi": 5211,
      "baato": 5212,
      "mane": 5213,
      "manega": 5214,
      "##ulad": 5215,
      "##andh": 5216,
      "nice": 5217,
      "hogaye": 5218,
      "kamz": 5219,
      "##jiya": 5220,
      "kabja": 5221,
      "jaban": 5222,
      "thee": 5223,
      "##mag": 5224,
      "batate": 5225,
      "batana": 5226,
      "rone": 5227,
      "think": 5228,
      "prad": 5229,
      "pradesh": 5230,
      "prerna": 5231,
      "dekhti": 5232,
      "kuto": 5233,
      "kutty": 5234,
      "lagane": 5235,
      "##toon": 5236,
      "gayab": 5237,
      "##many": 5238,
      "padte": 5239,
      "sth": 5240,
      "bhoo": 5241,
      "##shak": 5242,
      "##vidhan": 5243,
      "##ukat": 5244,
      "puche": 5245,
      "milni": 5246,
      "akbar": 5247,
      "##udhary": 5248,
      "vipa": 5249,
      "permission": 5250,
      "thook": 5251,
      "chit": 5252,
      "chief": 5253,
      "ladna": 5254,
      "kiske": 5255,
      "daya": 5256,
      "dash": 5257,
      "chodna": 5258,
      "salary": 5259,
      "##vaar": 5260,
      "gaddari": 5261,
      "sbke": 5262,
      "sanatan": 5263,
      "sunni": 5264,
      "namard": 5265,
      "noise": 5266,
      "darr": 5267,
      "jeeti": 5268,
      "taang": 5269,
      "patan": 5270,
      "patni": 5271,
      "samajhna": 5272,
      "kattar": 5273,
      "aisey": 5274,
      "##hry": 5275,
      "sipa": 5276,
      "konse": 5277,
      "burhan": 5278,
      "jesi": 5279,
      "samjo": 5280,
      "##fire": 5281,
      "sochta": 5282,
      "kejru": 5283,
      "saalon": 5284,
      "strik": 5285,
      "asse": 5286,
      "ghusne": 5287,
      "elections": 5288,
      "bhuk": 5289,
      "##ntu": 5290,
      "plzz": 5291,
      "nikalte": 5292,
      "shok": 5293,
      "strikes": 5294,
      "tarika": 5295,
      "kharch": 5296,
      "prasad": 5297,
      "chance": 5298,
      "ever": 5299,
      "soniya": 5300,
      "farq": 5301,
      "haramio": 5302,
      "fair": 5303,
      "faisla": 5304,
      "filme": 5305,
      "##dhav": 5306,
      "khilaaf": 5307,
      "rip": 5308,
      "rifa": 5309,
      ",,,,,": 5310,
      "afzal": 5311,
      "chhor": 5312,
      "tbhi": 5313,
      "vese": 5314,
      "vedio": 5315,
      "karwao": 5316,
      "aamir": 5317,
      "hram": 5318,
      "hrami": 5319,
      "bewkoof": 5320,
      "syria": 5321,
      "ghos": 5322,
      "ghoom": 5323,
      "1947": 5324,
      "fatt": 5325,
      "fatti": 5326,
      "majority": 5327,
      "panga": 5328,
      "president": 5329,
      "mangna": 5330,
      "aaram": 5331,
      "well": 5332,
      "paltu": 5333,
      "peeshab": 5334,
      "150": 5335,
      "poore": 5336,
      "pehly": 5337,
      "....": 5338,
      "##view": 5339,
      "damini": 5340,
      "muddo": 5341,
      "ministers": 5342,
      "file": 5343,
      "hinsa": 5344,
      "khelte": 5345,
      "dalaali": 5346,
      "hissa": 5347,
      "notbandi": 5348,
      "private": 5349,
      "dikhti": 5350,
      "ummeed": 5351,
      "whats": 5352,
      "chahiya": 5353,
      "samjhao": 5354,
      "schools": 5355,
      "dalito": 5356,
      "jindagi": 5357,
      "gulami": 5358,
      "jhute": 5359,
      "jhooth": 5360,
      "##ssage": 5361,
      "luck": 5362,
      "thuk": 5363,
      "hahahahahahaha": 5364,
      "through": 5365,
      "taisi": 5366,
      "taiyari": 5367,
      "turkey": 5368,
      "seniko": 5369,
      "urine": 5370,
      "naksaliyo": 5371,
      "feko": 5372,
      "criti": 5373,
      "ukhar": 5374,
      "mahaan": 5375,
      "tatha": 5376,
      "chatne": 5377,
      "janwaro": 5378,
      "bigad": 5379,
      "jaroori": 5380,
      "pahli": 5381,
      "bdle": 5382,
      "city": 5383,
      "rupees": 5384,
      "aatankiyo": 5385,
      "##thing": 5386,
      "danda": 5387,
      "dukan": 5388,
      "jhanda": 5389,
      "lambe": 5390,
      "bahaduri": 5391,
      "cartoon": 5392,
      "haraam": 5393,
      "##mula": 5394,
      "pyare": 5395,
      "thanks": 5396,
      "deshbhakti": 5397,
      "answer": 5398,
      "gandagi": 5399,
      "jayaga": 5400,
      "surakshit": 5401,
      "fasad": 5402,
      "zaban": 5403,
      "horaha": 5404,
      "arrest": 5405,
      "poora": 5406,
      "zarurat": 5407,
      "behes": 5408,
      "afsoos": 5409,
      "brit": 5410,
      "saheb": 5411,
      "camera": 5412,
      "licence": 5413,
      "direct": 5414,
      "director": 5415,
      "dosre": 5416,
      "hathiyar": 5417,
      "kajol": 5418,
      "meeting": 5419,
      "mauka": 5420,
      "chhup": 5421,
      "sponsor": 5422,
      "friend": 5423,
      "hdf": 5424,
      "rashtra": 5425,
      "pakisthan": 5426,
      "register": 5427,
      "class": 5428,
      "nalayak": 5429,
      "##blm": 5430,
      "kohli": 5431,
      "mohabbat": 5432,
      "mulayam": 5433,
      "hasil": 5434,
      "profile": 5435,
      "entry": 5436,
      "uttar": 5437,
      "krishna": 5438,
      "paramjit": 5439,
      "reaction": 5440,
      "muslaman": 5441,
      "economy": 5442,
      "dollar": 5443,
      "tadipar": 5444,
      "tarakki": 5445,
      "minutes": 5446,
      "freed": 5447,
      "innocent": 5448,
      "movies": 5449,
      "copy": 5450,
      "donald": 5451,
      "justify": 5452,
      "owaisi": 5453,
      "24": 5454,
      "36": 5455,
      "67": 5456,
      "600": 5457,
      "93": 5458,
      "aha": 5459,
      "ass": 5460,
      "ami": 5461,
      "adar": 5462,
      "aank": 5463,
      "cror": 5464,
      "dale": 5465,
      "dand": 5466,
      "eet": 5467,
      "flop": 5468,
      "gain": 5469,
      "ghn": 5470,
      "hang": 5471,
      "ib": 5472,
      "if": 5473,
      "iit": 5474,
      "jn": 5475,
      "jhar": 5476,
      "jwa": 5477,
      "khna": 5478,
      "lai": 5479,
      "lon": 5480,
      "mh": 5481,
      "mb": 5482,
      "mala": 5483,
      "mike": 5484,
      "make": 5485,
      "mms": 5486,
      "nor": 5487,
      "nko": 5488,
      "oil": 5489,
      "pen": 5490,
      "pde": 5491,
      "pdh": 5492,
      "pant": 5493,
      "pump": 5494,
      "rkhe": 5495,
      "sin": 5496,
      "sis": 5497,
      "sum": 5498,
      "stan": 5499,
      "swal": 5500,
      "shee": 5501,
      "tap": 5502,
      "tbi": 5503,
      "tino": 5504,
      "uta": 5505,
      "ura": 5506,
      "want": 5507,
      "wjh": 5508,
      "ydi": 5509,
      "ze": 5510,
      "zr": 5511,
      "zor": 5512,
      "ziya": 5513,
      "zada": 5514,
      "zero": 5515,
      "##mm": 5516,
      "##men": 5517,
      "##uage": 5518,
      "##ns": 5519,
      "##national": 5520,
      "##dm": 5521,
      "##ron": 5522,
      "##hmi": 5523,
      "##lvi": 5524,
      "##oz": 5525,
      "##over": 5526,
      "##kur": 5527,
      "##khan": 5528,
      "##khand": 5529,
      "##gu": 5530,
      "##gra": 5531,
      "##ida": 5532,
      "##iyat": 5533,
      "##16": 5534,
      "##87": 5535,
      "##sc": 5536,
      "##sol": 5537,
      "##cer": 5538,
      "##cted": 5539,
      "##cca": 5540,
      "##ccess": 5541,
      "##ph": 5542,
      "##pte": 5543,
      "##pra": 5544,
      "##vt": 5545,
      "##vat": 5546,
      "##vaadi": 5547,
      "##jye": 5548,
      "##jate": 5549,
      "##yda": 5550,
      "##zer": 5551,
      "##_f": 5552,
      "##fb": 5553,
      "##fadar": 5554,
      "##qoof": 5555,
      "##70": 5556,
      "##anat": 5557,
      "##anti": 5558,
      "##him": 5559,
      "##hilo": 5560,
      "##ating": 5561,
      "kita": 5562,
      "kitane": 5563,
      "kintu": 5564,
      "kae": 5565,
      "kaum": 5566,
      "kot": 5567,
      "koye": 5568,
      "##yaz": 5569,
      "##akir": 5570,
      "##akshan": 5571,
      "##dition": 5572,
      "hor": 5573,
      "hoor": 5574,
      "karr": 5575,
      "karor": 5576,
      "karay": 5577,
      "karsak": 5578,
      "mean": 5579,
      "meat": 5580,
      "message": 5581,
      "detail": 5582,
      "najar": 5583,
      "nasee": 5584,
      "kesa": 5585,
      "bay": 5586,
      "baho": 5587,
      "baari": 5588,
      "badiya": 5589,
      "baqi": 5590,
      "##uro": 5591,
      "##ury": 5592,
      "##net": 5593,
      "##ten": 5594,
      "jaana": 5595,
      "jaenge": 5596,
      "jaheel": 5597,
      "##ishan": 5598,
      "sadi": 5599,
      "saur": 5600,
      "saans": 5601,
      "safe": 5602,
      "rag": 5603,
      "rahna": 5604,
      "##tia": 5605,
      "##tizen": 5606,
      "##gaar": 5607,
      "##shtachar": 5608,
      "chaa": 5609,
      "chaat": 5610,
      "chatt": 5611,
      "chatu": 5612,
      "chaura": 5613,
      "##lee": 5614,
      "neend": 5615,
      "hii": 5616,
      "mod": 5617,
      "##rei": 5618,
      "##rest": 5619,
      "bhae": 5620,
      "bhais": 5621,
      "maq": 5622,
      "maadar": 5623,
      "abh": 5624,
      "##ikat": 5625,
      "##laam": 5626,
      "apana": 5627,
      "apno": 5628,
      "##lif": 5629,
      "kucch": 5630,
      "muha": 5631,
      "mukti": 5632,
      "tumri": 5633,
      "hag": 5634,
      "kru": 5635,
      "kry": 5636,
      "krdi": 5637,
      "krana": 5638,
      "ist": 5639,
      "bohut": 5640,
      "both": 5641,
      "heera": 5642,
      "joot": 5643,
      "maru": 5644,
      "marunga": 5645,
      "banati": 5646,
      "banaa": 5647,
      "##wag": 5648,
      "parega": 5649,
      "bet": 5650,
      "bej": 5651,
      "beka": 5652,
      "becha": 5653,
      "belie": 5654,
      "behtar": 5655,
      "pea": 5656,
      "pey": 5657,
      "pese": 5658,
      "pao": 5659,
      "pach": 5660,
      "paani": 5661,
      "leya": 5662,
      "differ": 5663,
      "##ssan": 5664,
      "jija": 5665,
      "jiyada": 5666,
      "jitane": 5667,
      "aapni": 5668,
      "aaplog": 5669,
      "huve": 5670,
      "bhaio": 5671,
      "doh": 5672,
      "done": 5673,
      "down": 5674,
      "tub": 5675,
      "##alab": 5676,
      "success": 5677,
      "wow": 5678,
      "unlimited": 5679,
      "samna": 5680,
      "sambit": 5681,
      "jaisy": 5682,
      "thay": 5683,
      "mill": 5684,
      "midea": 5685,
      "ankho": 5686,
      "anjam": 5687,
      "anchor": 5688,
      "##usar": 5689,
      "waala": 5690,
      "wafadar": 5691,
      "rel": 5692,
      "ref": 5693,
      "reque": 5694,
      "##araj": 5695,
      "shadat": 5696,
      "baaton": 5697,
      "##ults": 5698,
      "taklif": 5699,
      "##ative": 5700,
      "pore": 5701,
      "pollu": 5702,
      "saky": 5703,
      "sakal": 5704,
      "got": 5705,
      "dika": 5706,
      "hard": 5707,
      "congrees": 5708,
      "##baa": 5709,
      "roy": 5710,
      "robin": 5711,
      "prata": 5712,
      "prince": 5713,
      "lagai": 5714,
      "tabahi": 5715,
      "waley": 5716,
      "andhi": 5717,
      "tumhary": 5718,
      "padenge": 5719,
      "padhna": 5720,
      "padhai": 5721,
      "barat": 5722,
      "barda": 5723,
      "dikhata": 5724,
      "##\u0000\u0000\u0000\u0000\u0000\u0000\u0000\u0000\u0000\u0000\u0000\u0000\u0000\u0000\u0000\u0000\u0000\u0000\u0000\u0000\u0000\u0000\u0000\u0000": 5725,
      "rhegi": 5726,
      "star": 5727,
      "bhol": 5728,
      "bhoj": 5729,
      "##lly": 5730,
      "##lling": 5731,
      "kahana": 5732,
      "aajkal": 5733,
      "uphar": 5734,
      "rajput": 5735,
      "tmc": 5736,
      "pakistaniyon": 5737,
      "hmko": 5738,
      "mulak": 5739,
      "viva": 5740,
      "vidhan": 5741,
      "percent": 5742,
      "nikl": 5743,
      "nikah": 5744,
      "nikaal": 5745,
      "thoko": 5746,
      "thought": 5747,
      "chij": 5748,
      "ladh": 5749,
      "laden": 5750,
      "dage": 5751,
      "dafa": 5752,
      "bhagvan": 5753,
      "naiti": 5754,
      "govment": 5755,
      "bakba": 5756,
      "##ttle": 5757,
      "surk": 5758,
      "surf": 5759,
      "##warya": 5760,
      "salute": 5761,
      "gadar": 5762,
      "gaddi": 5763,
      "sanjay": 5764,
      "sandesh": 5765,
      "sunn": 5766,
      "sunte": 5767,
      "gyaa": 5768,
      "dallo": 5769,
      "noch": 5770,
      "##thak": 5771,
      "##bid": 5772,
      "##ists": 5773,
      "daro": 5774,
      "darte": 5775,
      "jeene": 5776,
      "hahahah": 5777,
      "tag": 5778,
      "ghush": 5779,
      "ghuse": 5780,
      "patta": 5781,
      "faci": 5782,
      "samajhta": 5783,
      "katte": 5784,
      "adat": 5785,
      "adhar": 5786,
      "hotey": 5787,
      "simp": 5788,
      "sidhe": 5789,
      "alla": 5790,
      "already": 5791,
      "khor": 5792,
      "kholo": 5793,
      "khans": 5794,
      "kyou": 5795,
      "times": 5796,
      "duga": 5797,
      "kartay": 5798,
      "jeise": 5799,
      "kerta": 5800,
      "##ations": 5801,
      "atal": 5802,
      "naki": 5803,
      "shid": 5804,
      "bail": 5805,
      "jalti": 5806,
      "offer": 5807,
      "kalb": 5808,
      "kalank": 5809,
      "khil": 5810,
      "10000": 5811,
      "geya": 5812,
      "aatang": 5813,
      "dharmik": 5814,
      "##ashtra": 5815,
      "uthane": 5816,
      "target": 5817,
      "export": 5818,
      "prashan": 5819,
      "spo": 5820,
      "spy": 5821,
      "juban": 5822,
      "endia": 5823,
      "enka": 5824,
      "hatya": 5825,
      "gid": 5826,
      "kanhi": 5827,
      "kanun": 5828,
      "smjha": 5829,
      "chutmul": 5830,
      "jinka": 5831,
      "kaunsa": 5832,
      "subh": 5833,
      "kuttay": 5834,
      "bnao": 5835,
      "bachana": 5836,
      "ghalat": 5837,
      "ghamand": 5838,
      "wahaan": 5839,
      "chalegi": 5840,
      "richa": 5841,
      "##mbly": 5842,
      "gardi": 5843,
      "garam": 5844,
      "jeetne": 5845,
      "bnne": 5846,
      "bhg": 5847,
      "islamic": 5848,
      "chunaw": 5849,
      "compare": 5850,
      "bhadka": 5851,
      "bhadve": 5852,
      "waqat": 5853,
      "##vert": 5854,
      "father": 5855,
      "gujra": 5856,
      "budha": 5857,
      "kehlata": 5858,
      "hijra": 5859,
      "##endy": 5860,
      "mangte": 5861,
      "aarmy": 5862,
      "dhanya": 5863,
      "srf": 5864,
      "bajr": 5865,
      "hahah": 5866,
      "talk": 5867,
      "mahilao": 5868,
      "rajnitik": 5869,
      "khelne": 5870,
      "mamla": 5871,
      "price": 5872,
      "rupa": 5873,
      "raajne": 5874,
      "bhartiye": 5875,
      "udaya": 5876,
      "second": 5877,
      "waisa": 5878,
      "haqi": 5879,
      "military": 5880,
      "padegi": 5881,
      "raina": 5882,
      "bahana": 5883,
      "jhuth": 5884,
      "dekhega": 5885,
      "commun": 5886,
      "community": 5887,
      "airport": 5888,
      "screen": 5889,
      "uljha": 5890,
      "visit": 5891,
      "reliance": 5892,
      "gareebo": 5893,
      "chahti": 5894,
      "days": 5895,
      "tamam": 5896,
      "bechara": 5897,
      "ahmed": 5898,
      "naren": 5899,
      "bahenchod": 5900,
      "rokna": 5901,
      "soldier": 5902,
      "hongi": 5903,
      "phale": 5904,
      "pahchan": 5905,
      "tayyar": 5906,
      "white": 5907,
      "citizen": 5908,
      "player": 5909,
      "tarif": 5910,
      "majburi": 5911,
      "centre": 5912,
      "guruji": 5913,
      "unity": 5914,
      "##pose": 5915,
      "haramkhoro": 5916,
      "actors": 5917,
      "istefa": 5918,
      "chootiya": 5919,
      "story_f": 5920,
      "riste": 5921,
      "rishta": 5922,
      "tareef": 5923,
      "##315": 5924,
      "insaf": 5925,
      "inshallah": 5926,
      "aasu": 5927,
      "suraksha": 5928,
      "naksalwad": 5929,
      "zaroorat": 5930,
      "php": 5931,
      "phly": 5932,
      "very": 5933,
      "international": 5934,
      "ungali": 5935,
      "trip": 5936,
      "funding": 5937,
      "pahunch": 5938,
      "chudiyan": 5939,
      "jumlebaji": 5940,
      "tiranga": 5941,
      "##work": 5942,
      "mohd": 5943,
      "hmmm": 5944,
      "fenku": 5945,
      "kachra": 5946,
      "hogya": 5947,
      "hogye": 5948,
      "license": 5949,
      "jimmedari": 5950,
      "dosri": 5951,
      "manipur": 5952,
      "jhoota": 5953,
      "177": 5954,
      "dhyaan": 5955,
      "rkhi": 5956,
      "smaj": 5957,
      "mahesh": 5958,
      "seriously": 5959,
      "beroj": 5960,
      "khalasa": 5961,
      "feel": 5962,
      "zim": 5963,
      "mental": 5964,
      "aishwarya": 5965,
      "bujdil": 5966,
      "civil": 5967,
      "chauhan": 5968,
      "chappal": 5969,
      "mahol": 5970,
      "birthday": 5971,
      "bhagwaatank": 5972,
      "language": 5973,
      "mukabla": 5974,
      "product": 5975,
      "emplo": 5976,
      "pandit": 5977,
      "qatal": 5978,
      "toilet": 5979,
      "information": 5980,
      "hajaro": 5981,
      "jaitley": 5982,
      "ceasefire": 5983,
      "moulana": 5984,
      "kamzor": 5985,
      "sipahi": 5986,
      "assembly": 5987,
      "freedom": 5988,
      "naseeb": 5989,
      "believe": 5990,
      "request": 5991,
      "facili": 5992,
      "chutmulle": 5993,
      "story_fbid": 5994,
      "\u0000\u0000\u0000\u0000\u0000\u0000\u0000\u0000\u0000\u0000\u0000\u0000\u0000\u0000\u0000\u0000\u0000\u0000\u0000\u0000\u0000\u0000\u0000\u0000\u0000\u0000\u0000\u0000\u0000\u0000\u0000\u0000\u0000\u0000\u0000\u0000\u0000\u0000\u0000\u0000\u0000\u0000\u0000\u0000\u0000\u0000\u0000\u0000\u0000\u0000\u0000\u0000\u0000\u0000\u0000\u0000\u0000\u0000\u0000\u0000\u0000\u0000\u0000\u0000\u0000": 5995,
      "\u0000\u0000\u0000\u0000\u0000\u0000\u0000\u0000\u0000\u0000\u0000\u0000\u0000\u0000\u0000\u0000\u0000\u0000\u0000\u0000\u0000\u0000\u0000\u0000\u0000": 5996,
      ".#": 5997,
      "1st": 5998,
      "4g": 5999,
      "47": 6000,
      "890": 6001,
      "=================": 6002,
      "ahi": 6003,
      "adi": 6004,
      "akar": 6005,
      "ari": 6006,
      "aus": 6007,
      "aand": 6008,
      "ama": 6009,
      "ayi": 6010,
      "aans": 6011,
      "ajay": 6012,
      "ayga": 6013,
      "bya": 6014,
      "bam": 6015,
      "bde": 6016,
      "bati": 6017,
      "bdha": 6018,
      "cs": 6019,
      "chir": 6020,
      "cpi": 6021,
      "cult": 6022,
      "dl": 6023,
      "dk": 6024,
      "dir": 6025,
      "dra": 6026,
      "dri": 6027,
      "dro": 6028,
      "dhun": 6029,
      "dance": 6030,
      "em": 6031,
      "fuk": 6032,
      "fit": 6033,
      "fool": 6034,
      "ghi": 6035,
      "gala": 6036,
      "ghab": 6037,
      "ghee": 6038,
      "hl": 6039,
      "hwa": 6040,
      "hala": 6041,
      "ias": 6042,
      "iman": 6043,
      "itane": 6044,
      "izat": 6045,
      "jya": 6046,
      "kn": 6047,
      "kkr": 6048,
      "lk": 6049,
      "lati": 6050,
      "ling": 6051,
      "mgr": 6052,
      "nc": 6053,
      "nya": 6054,
      "nain": 6055,
      "oy": 6056,
      "odi": 6057,
      "oos": 6058,
      "oukat": 6059,
      "pya": 6060,
      "qoom": 6061,
      "rath": 6062,
      "rkh": 6063,
      "rendy": 6064,
      "sch": 6065,
      "sla": 6066,
      "smi": 6067,
      "shy": 6068,
      "speak": 6069,
      "stay": 6070,
      "tek": 6071,
      "ue": 6072,
      "uz": 6073,
      "vaa": 6074,
      "vah": 6075,
      "wad": 6076,
      "wit": 6077,
      "yhe": 6078,
      "yake": 6079,
      "yanha": 6080,
      "zame": 6081,
      "##mata": 6082,
      "##uz": 6083,
      "##uch": 6084,
      "##dn": 6085,
      "##dya": 6086,
      "##dli": 6087,
      "##denge": 6088,
      "##dence": 6089,
      "##egi": 6090,
      "##rati": 6091,
      "##one": 6092,
      "##km": 6093,
      "##kl": 6094,
      "##kon": 6095,
      "##kla": 6096,
      "##kkar": 6097,
      "##gye": 6098,
      "##gad": 6099,
      "##19": 6100,
      "##82": 6101,
      "##84": 6102,
      "##su": 6103,
      "##sya": 6104,
      "##sus": 6105,
      "##ster": 6106,
      "##tk": 6107,
      "##tti": 6108,
      "##tre": 6109,
      "##cl": 6110,
      "##can": 6111,
      "##cke": 6112,
      "##ving": 6113,
      "##vay": 6114,
      "##jai": 6115,
      "##jur": 6116,
      "##jri": 6117,
      "##yana": 6118,
      "##xit": 6119,
      "##_sol": 6120,
      "##29": 6121,
      "##45": 6122,
      "##wata": 6123,
      "##quf": 6124,
      "##38": 6125,
      "##aro": 6126,
      "##arch": 6127,
      "##ardast": 6128,
      "##haas": 6129,
      "##airat": 6130,
      "##ange": 6131,
      "##antu": 6132,
      "##atment": 6133,
      "##allah": 6134,
      "##altu": 6135,
      "kid": 6136,
      "kimat": 6137,
      "kahiye": 6138,
      "kaash": 6139,
      "kol": 6140,
      "kohi": 6141,
      "kore": 6142,
      "##yachar": 6143,
      "hoshi": 6144,
      "hogai": 6145,
      "meko": 6146,
      "mediya": 6147,
      "mecca": 6148,
      "##yen": 6149,
      "deka": 6150,
      "dest": 6151,
      "deek": 6152,
      "demon": 6153,
      "nag": 6154,
      "kes": 6155,
      "kendra": 6156,
      "kelie": 6157,
      "tok": 6158,
      "toda": 6159,
      "todh": 6160,
      "##tava": 6161,
      "baath": 6162,
      "baji": 6163,
      "bachan": 6164,
      "bahum": 6165,
      "baandh": 6166,
      "##hoo": 6167,
      "send": 6168,
      "jaw": 6169,
      "jadhav": 6170,
      "jahilo": 6171,
      "##isation": 6172,
      "##issio": 6173,
      "sae": 6174,
      "sacha": 6175,
      "rashi": 6176,
      "##adu": 6177,
      "##oni": 6178,
      "##eri": 6179,
      "inshan": 6180,
      "inlogo": 6181,
      "yese": 6182,
      "yesa": 6183,
      "aaza": 6184,
      "aasan": 6185,
      "aazan": 6186,
      "chati": 6187,
      "chada": 6188,
      "chaiya": 6189,
      "chadha": 6190,
      "chaudhary": 6191,
      "nek": 6192,
      "need": 6193,
      "loda": 6194,
      "lodo": 6195,
      "loag": 6196,
      "bhim": 6197,
      "hila": 6198,
      "moo": 6199,
      "mota": 6200,
      "mood": 6201,
      "aurto": 6202,
      "##ream": 6203,
      "##renge": 6204,
      "bhain": 6205,
      "bhage": 6206,
      "bhayi": 6207,
      "masha": 6208,
      "maje": 6209,
      "abu": 6210,
      "abid": 6211,
      "##ikar": 6212,
      "apane": 6213,
      "apani": 6214,
      "##set": 6215,
      "##liz": 6216,
      "##light": 6217,
      "pakdo": 6218,
      "pakstan": 6219,
      "##dasti": 6220,
      "kuki": 6221,
      "muth": 6222,
      "mugal": 6223,
      "mutr": 6224,
      "tuma": 6225,
      "tumhi": 6226,
      "haye": 6227,
      "haali": 6228,
      "hawan": 6229,
      "hack": 6230,
      "hazam": 6231,
      "krny": 6232,
      "ispe": 6233,
      "bodar": 6234,
      "bohn": 6235,
      "book": 6236,
      "gaal": 6237,
      "##unter": 6238,
      "logu": 6239,
      "hema": 6240,
      "jod": 6241,
      "mars": 6242,
      "march": 6243,
      "marni": 6244,
      "marty": 6245,
      "maray": 6246,
      "mardo": 6247,
      "mardan": 6248,
      "org": 6249,
      "##eny": 6250,
      "##orat": 6251,
      "##wah": 6252,
      "##wash": 6253,
      "pardhan": 6254,
      "parantu": 6255,
      "bel": 6256,
      "beb": 6257,
      "better": 6258,
      "pete": 6259,
      "paar": 6260,
      "paale": 6261,
      "pahn": 6262,
      "paoge": 6263,
      "paaye": 6264,
      "pabandi": 6265,
      "legal": 6266,
      "leag": 6267,
      "letter": 6268,
      "dili": 6269,
      "diwali": 6270,
      "dixit": 6271,
      "yahn": 6272,
      "khai": 6273,
      "##racy": 6274,
      "jii": 6275,
      "jihad": 6276,
      "sabr": 6277,
      "sabi": 6278,
      "sabar": 6279,
      "sabdo": 6280,
      "##niya": 6281,
      "##kaj": 6282,
      "##kaari": 6283,
      "doo": 6284,
      "rahee": 6285,
      "raheinge": 6286,
      "maidan": 6287,
      "##abu": 6288,
      "##abad": 6289,
      "suha": 6290,
      "woo": 6291,
      "samar": 6292,
      "jaiga": 6293,
      "##saq": 6294,
      "##oop": 6295,
      "mia": 6296,
      "midi": 6297,
      "ang": 6298,
      "antar": 6299,
      "anusar": 6300,
      "bolke": 6301,
      "bolty": 6302,
      "dekhle": 6303,
      "##media": 6304,
      "chodi": 6305,
      "choki": 6306,
      "janam": 6307,
      "janne": 6308,
      "janata": 6309,
      "waar": 6310,
      "waad": 6311,
      "wajh": 6312,
      "wajid": 6313,
      "wajha": 6314,
      "rey": 6315,
      "remo": 6316,
      "ready": 6317,
      "reality": 6318,
      "arun": 6319,
      "arop": 6320,
      "muskil": 6321,
      "agg": 6322,
      "agy": 6323,
      "aggar": 6324,
      "##eep": 6325,
      "shat": 6326,
      "##ullah": 6327,
      "posi": 6328,
      "##ander": 6329,
      "constitu": 6330,
      "nibha": 6331,
      "nipat": 6332,
      "##arita": 6333,
      "##lok": 6334,
      "hogay": 6335,
      "khuch": 6336,
      "kamya": 6337,
      "badala": 6338,
      "som": 6339,
      "soach": 6340,
      "sakht": 6341,
      "karod": 6342,
      "hindut": 6343,
      "dikhne": 6344,
      "hark": 6345,
      "bit": 6346,
      "bijli": 6347,
      "##utt": 6348,
      "##mach": 6349,
      "##baji": 6350,
      "##bazo": 6351,
      "rote": 6352,
      "thing": 6353,
      "mataram": 6354,
      "dekhni": 6355,
      "rakhta": 6356,
      "andha": 6357,
      "##mano": 6358,
      "##mantri": 6359,
      "##yiye": 6360,
      "dikhayi": 6361,
      "stup": 6362,
      "stunt": 6363,
      "chalna": 6364,
      "##shat": 6365,
      "##edding": 6366,
      "chk": 6367,
      "##vice": 6368,
      "##vidha": 6369,
      "##ukri": 6370,
      "##icate": 6371,
      "gharo": 6372,
      "##vey": 6373,
      "akka": 6374,
      "vip": 6375,
      "villa": 6376,
      "nikala": 6377,
      "thod": 6378,
      "thori": 6379,
      "chinese": 6380,
      "##ders": 6381,
      "lada": 6382,
      "lady": 6383,
      "dhara": 6384,
      "dhare": 6385,
      "daan": 6386,
      "bakra": 6387,
      "bakri": 6388,
      "bakchod": 6389,
      "sharif": 6390,
      "chodne": 6391,
      "salle": 6392,
      "gadho": 6393,
      "gadbad": 6394,
      "gadbadi": 6395,
      "sunta": 6396,
      "sundar": 6397,
      "sungh": 6398,
      "dalne": 6399,
      "noche": 6400,
      "000000": 6401,
      "area": 6402,
      "hahahahhaha": 6403,
      "walay": 6404,
      "tahir": 6405,
      "taaki": 6406,
      "patrak": 6407,
      "faye": 6408,
      "samajhte": 6409,
      "guzar": 6410,
      "katenge": 6411,
      "adv": 6412,
      "adani": 6413,
      "hotel": 6414,
      "tele": 6415,
      "teache": 6416,
      "pith": 6417,
      "sidhi": 6418,
      "alg": 6419,
      "also": 6420,
      "khand": 6421,
      "khany": 6422,
      "khandan": 6423,
      "khatna": 6424,
      "khatma": 6425,
      "duty": 6426,
      "jaayenge": 6427,
      "jaayegi": 6428,
      "kerwa": 6429,
      "##chistan": 6430,
      "kuttey": 6431,
      "chek": 6432,
      "chez": 6433,
      "bhakts": 6434,
      "##khya": 6435,
      "##chara": 6436,
      "nakam": 6437,
      "nakami": 6438,
      "ghuskar": 6439,
      "##cident": 6440,
      "baitho": 6441,
      "jalan": 6442,
      "likhne": 6443,
      "##herwan": 6444,
      "buss": 6445,
      "buhat": 6446,
      "##oshan": 6447,
      "bhukhe": 6448,
      "sachha": 6449,
      "hall": 6450,
      "halla": 6451,
      "get": 6452,
      "#####": 6453,
      "nikalti": 6454,
      "shoot": 6455,
      "esse": 6456,
      "eski": 6457,
      "eska": 6458,
      "vaale": 6459,
      "forei": 6460,
      "kregi": 6461,
      "uthaya": 6462,
      "uthana": 6463,
      "uthappa": 6464,
      "tarik": 6465,
      "extra": 6466,
      "khara": 6467,
      "supply": 6468,
      "##yarth": 6469,
      "fekne": 6470,
      "chanal": 6471,
      "enke": 6472,
      "endian": 6473,
      "even": 6474,
      "nehin": 6475,
      "sonch": 6476,
      "aayee": 6477,
      "worry": 6478,
      "haramiyo": 6479,
      "2015": 6480,
      "2014": 6481,
      "cmnt": 6482,
      "dhoni": 6483,
      "dhong": 6484,
      "dhokha": 6485,
      "filmo": 6486,
      "masum": 6487,
      "khilao": 6488,
      "garg": 6489,
      "##they": 6490,
      "auqat": 6491,
      ",,,,,,,": 6492,
      "ayenge": 6493,
      "khur": 6494,
      "khda": 6495,
      "bachhe": 6496,
      "bachcho": 6497,
      "jeetna": 6498,
      "lalchi": 6499,
      "channels": 6500,
      "##bel": 6501,
      "bnta": 6502,
      "bnane": 6503,
      "bhd": 6504,
      "bhkt": 6505,
      "samajhdar": 6506,
      "12000": 6507,
      "viral": 6508,
      "##very": 6509,
      "mrne": 6510,
      "mrte": 6511,
      "majhab": 6512,
      "budh": 6513,
      "buddhi": 6514,
      "dram": 6515,
      "gande": 6516,
      "garibi": 6517,
      "lakho": 6518,
      "kahege": 6519,
      "parivaar": 6520,
      "2002": 6521,
      "azaad": 6522,
      "pankaj": 6523,
      "palti": 6524,
      "shankar": 6525,
      "dhandli": 6526,
      "srk": 6527,
      "##yakti": 6528,
      "champion": 6529,
      "doston": 6530,
      "gundo": 6531,
      "chudwa": 6532,
      "solve": 6533,
      "daik": 6534,
      "mahina": 6535,
      "aesi": 6536,
      "utne": 6537,
      "ladkiya": 6538,
      "jamanat": 6539,
      "kahti": 6540,
      "bhartiy": 6541,
      "states": 6542,
      "samjhana": 6543,
      "awaj": 6544,
      "##uuuu": 6545,
      "##ffar": 6546,
      "jindabaad": 6547,
      "indra": 6548,
      "indain": 6549,
      "tukdo": 6550,
      "tukade": 6551,
      "aatankwad": 6552,
      "brbaad": 6553,
      "benchod": 6554,
      "jhuta": 6555,
      "jhundu": 6556,
      "saitan": 6557,
      "bechne": 6558,
      "common": 6559,
      "commission": 6560,
      "commissio": 6561,
      "sikhao": 6562,
      "visa": 6563,
      "viswas": 6564,
      "blast": 6565,
      "##mint": 6566,
      "mithun": 6567,
      "thk": 6568,
      "insult": 6569,
      "chamcho": 6570,
      "sarif": 6571,
      "talaak": 6572,
      "serf": 6573,
      "sergical": 6574,
      "service": 6575,
      "payment": 6576,
      "acting": 6577,
      "##aaaaaa": 6578,
      "dakho": 6579,
      "really": 6580,
      "dubara": 6581,
      "randian": 6582,
      "randians": 6583,
      "failate": 6584,
      "phail": 6585,
      "bhokte": 6586,
      "chlta": 6587,
      "besharam": 6588,
      "tayar": 6589,
      "which": 6590,
      "osama": 6591,
      "begairat": 6592,
      "nitin": 6593,
      "balidaan": 6594,
      "dhayan": 6595,
      "earth": 6596,
      "haraami": 6597,
      "oppose": 6598,
      "forces": 6599,
      "majbut": 6600,
      "century": 6601,
      "babri": 6602,
      "magne": 6603,
      "lahor": 6604,
      "swami": 6605,
      "stop": 6606,
      "##vastava": 6607,
      "naxal": 6608,
      "angrej": 6609,
      "angrezo": 6610,
      "planning": 6611,
      "hojayega": 6612,
      "katua": 6613,
      "paagal": 6614,
      "jitega": 6615,
      "jitendra": 6616,
      "chootiye": 6617,
      "secularism": 6618,
      "blood": 6619,
      "lundian": 6620,
      "vinod": 6621,
      "##kumar": 6622,
      "insaaf": 6623,
      "glti": 6624,
      "verma": 6625,
      "sanskar": 6626,
      "grow": 6627,
      "karyakarta": 6628,
      "maharaj": 6629,
      "tumhae": 6630,
      "chodege": 6631,
      "andhbhakto": 6632,
      "##word": 6633,
      "kirtan": 6634,
      "kosis": 6635,
      "bhaukne": 6636,
      "jetli": 6637,
      "animal": 6638,
      "najayaz": 6639,
      "rapist": 6640,
      "##tificate": 6641,
      "007": 6642,
      "0017": 6643,
      "rkhna": 6644,
      "zuber": 6645,
      "sekte": 6646,
      "muglo": 6647,
      "hitler": 6648,
      "deposi": 6649,
      "gaurav": 6650,
      "sarabhai": 6651,
      "polls": 6652,
      "contain": 6653,
      "experi": 6654,
      "sponser": 6655,
      "agency": 6656,
      "break": 6657,
      "network": 6658,
      "bathroom": 6659,
      "gatiya": 6660,
      "lalach": 6661,
      "step": 6662,
      "zulm": 6663,
      "andaza": 6664,
      "something": 6665,
      "certificate": 6666,
      "special": 6667,
      "yuddh": 6668,
      "kameen": 6669,
      "nasle": 6670,
      "sawaal": 6671,
      "lavde": 6672,
      "strick": 6673,
      "transfer": 6674,
      "africa": 6675,
      "yakin": 6676,
      "bahno": 6677,
      "sachin": 6678,
      "multibot": 6679,
      "kejariwal": 6680,
      "dhram": 6681,
      "itihas": 6682,
      "jhelna": 6683,
      "siyasat": 6684,
      "hukumat": 6685,
      "masjido": 6686,
      "khyal": 6687,
      "##crore": 6688,
      "##cott": 6689,
      "##bharat": 6690,
      "apradhi": 6691,
      "mushkil": 6692,
      "muzafar": 6693,
      "article": 6694,
      "british": 6695,
      "assam": 6696,
      "ghnta": 6697,
      "jharkhand": 6698,
      "details": 6699,
      "peace": 6700,
      "pollution": 6701,
      "pratap": 6702,
      "vidhansabha": 6703,
      "bajrang": 6704,
      "raajneeti": 6705,
      "\u0000\u0000\u0000\u0000\u0000\u0000\u0000\u0000\u0000\u0000\u0000\u0000\u0000\u0000\u0000\u0000\u0000\u0000\u0000\u0000\u0000\u0000\u0000\u0000\u0000\u0000": 6706,
      "csv": 6707,
      "ghabra": 6708,
      "lkn": 6709,
      "yakeen": 6710,
      "demonit": 6711,
      "bahumat": 6712,
      "aazadi": 6713,
      "mardangi": 6714,
      "constitution": 6715,
      "patrakarita": 6716,
      "foreign": 6717,
      "commissioner": 6718,
      "001750": 6719,
      "---": 6720,
      ".)": 6721,
      ".(": 6722,
      "099": 6723,
      "1la": 6724,
      "27": 6725,
      "58": 6726,
      "68": 6727,
      "688": 6728,
      "75": 6729,
      "ahan": 6730,
      "aut": 6731,
      "ashi": 6732,
      "asaan": 6733,
      "ashish": 6734,
      "adit": 6735,
      "bye": 6736,
      "bhr": 6737,
      "btana": 6738,
      "cur": 6739,
      "cus": 6740,
      "cut": 6741,
      "caay": 6742,
      "dg": 6743,
      "dain": 6744,
      "dhab": 6745,
      "dkho": 6746,
      "droh": 6747,
      "ee": 6748,
      "ey": 6749,
      "eat": 6750,
      "eak": 6751,
      "eik": 6752,
      "edit": 6753,
      "equ": 6754,
      "fra": 6755,
      "foo": 6756,
      "fhir": 6757,
      "fes": 6758,
      "fund": 6759,
      "gli": 6760,
      "gst": 6761,
      "geed": 6762,
      "ghin": 6763,
      "hta": 6764,
      "hsi": 6765,
      "hina": 6766,
      "ira": 6767,
      "itani": 6768,
      "jk": 6769,
      "jga": 6770,
      "jine": 6771,
      "jgh": 6772,
      "kath": 6773,
      "lya": 6774,
      "lul": 6775,
      "lunga": 6776,
      "mne": 6777,
      "mind": 6778,
      "nath": 6779,
      "nhai": 6780,
      "ow": 6781,
      "oly": 6782,
      "phi": 6783,
      "pin": 6784,
      "pus": 6785,
      "ren": 6786,
      "rang": 6787,
      "rkho": 6788,
      "ske": 6789,
      "sheed": 6790,
      "sci": 6791,
      "shot": 6792,
      "shub": 6793,
      "tya": 6794,
      "tla": 6795,
      "taa": 6796,
      "uj": 6797,
      "uthe": 6798,
      "vy": 6799,
      "vhi": 6800,
      "vrna": 6801,
      "whe": 6802,
      "wlo": 6803,
      "wish": 6804,
      "waki": 6805,
      "xd": 6806,
      "yat": 6807,
      "zay": 6808,
      "zalim": 6809,
      "zyda": 6810,
      "##ahaha": 6811,
      "##ayi": 6812,
      "##mare": 6813,
      "##mist": 6814,
      "##ug": 6815,
      "##uki": 6816,
      "##nda": 6817,
      "##dta": 6818,
      "##den": 6819,
      "##rana": 6820,
      "##hya": 6821,
      "##lj": 6822,
      "##lar": 6823,
      "##lak": 6824,
      "##loo": 6825,
      "##land": 6826,
      "##lain": 6827,
      "##kne": 6828,
      "##kri": 6829,
      "##gham": 6830,
      "##gram": 6831,
      "##ice": 6832,
      "##18": 6833,
      "##15": 6834,
      "##81": 6835,
      "##sk": 6836,
      "##sb": 6837,
      "##sw": 6838,
      "##sin": 6839,
      "##skar": 6840,
      "##soos": 6841,
      "##tya": 6842,
      "##cracy": 6843,
      "##pha": 6844,
      "##pne": 6845,
      "##ping": 6846,
      "##pter": 6847,
      "##pap": 6848,
      "##vir": 6849,
      "##js": 6850,
      "##jb": 6851,
      "##jna": 6852,
      "##jata": 6853,
      "##jana": 6854,
      "##yr": 6855,
      "##zad": 6856,
      "##zwan": 6857,
      "##bb": 6858,
      "##bari": 6859,
      "##_hi": 6860,
      "##665": 6861,
      "##won": 6862,
      "##ware": 6863,
      "##ful": 6864,
      "##ffect": 6865,
      "##qe": 6866,
      "##380": 6867,
      "##hane": 6868,
      "##hali": 6869,
      "##aid": 6870,
      "##anath": 6871,
      "##hire": 6872,
      "haiii": 6873,
      "##atak": 6874,
      "##alkti": 6875,
      "kiyon": 6876,
      "kissi": 6877,
      "kilaf": 6878,
      "kijye": 6879,
      "kad": 6880,
      "kada": 6881,
      "kaka": 6882,
      "kahen": 6883,
      "kayer": 6884,
      "##akash": 6885,
      "hooo": 6886,
      "hoty": 6887,
      "karoo": 6888,
      "karthe": 6889,
      "karid": 6890,
      "karunga": 6891,
      "karnat": 6892,
      "mea": 6893,
      "mel": 6894,
      "mehra": 6895,
      "dea": 6896,
      "deli": 6897,
      "degre": 6898,
      "decide": 6899,
      "##india": 6900,
      "##indian": 6901,
      "naz": 6902,
      "nash": 6903,
      "nasi": 6904,
      "nasa": 6905,
      "nayak": 6906,
      "nashe": 6907,
      "##taani": 6908,
      "baab": 6909,
      "basa": 6910,
      "baut": 6911,
      "baaj": 6912,
      "bajay": 6913,
      "bayaan": 6914,
      "##urat": 6915,
      "##nefi": 6916,
      "##nect": 6917,
      "##hout": 6918,
      "sei": 6919,
      "sewa": 6920,
      "seed": 6921,
      "jau": 6922,
      "jage": 6923,
      "jaoo": 6924,
      "jaunga": 6925,
      "##isto": 6926,
      "##ised": 6927,
      "saara": 6928,
      "saaa": 6929,
      "sache": 6930,
      "sapa": 6931,
      "sasti": 6932,
      "raa": 6933,
      "ras": 6934,
      "raw": 6935,
      "racha": 6936,
      "##hud": 6937,
      "##ony": 6938,
      "##ert": 6939,
      "##eraman": 6940,
      "##chy": 6941,
      "##chhe": 6942,
      "##chhod": 6943,
      "##shn": 6944,
      "inc": 6945,
      "inste": 6946,
      "yes": 6947,
      "aagy": 6948,
      "chae": 6949,
      "chay": 6950,
      "chaliye": 6951,
      "neenda": 6952,
      "loan": 6953,
      "mohan": 6954,
      "molvi": 6955,
      "##rey": 6956,
      "bhau": 6957,
      "bhaw": 6958,
      "bhabi": 6959,
      "maam": 6960,
      "mach": 6961,
      "maari": 6962,
      "##tank": 6963,
      "abtak": 6964,
      "##ikal": 6965,
      "##laa": 6966,
      "##lash": 6967,
      "apse": 6968,
      "apil": 6969,
      "appe": 6970,
      "apky": 6971,
      "##sey": 6972,
      "pakade": 6973,
      "kul": 6974,
      "kuy": 6975,
      "kund": 6976,
      "kulb": 6977,
      "muke": 6978,
      "mujh": 6979,
      "muze": 6980,
      "hahhaha": 6981,
      "hahha": 6982,
      "hassan": 6983,
      "krlo": 6984,
      "krunga": 6985,
      "bot": 6986,
      "bool": 6987,
      "gas": 6988,
      "gab": 6989,
      "gaad": 6990,
      "gaon": 6991,
      "##\u0000\u0000\u0000\u0000\u0000\u0000\u0000": 6992,
      "##ung": 6993,
      "##unty": 6994,
      "heli": 6995,
      "jodi": 6996,
      "marti": 6997,
      "marwane": 6998,
      "maruga": 6999,
      "bans": 7000,
      "banai": 7001,
      "banakar": 7002,
      "banoge": 7003,
      "nhin": 7004,
      "##kee": 7005,
      "##kega": 7006,
      "##kedar": 7007,
      "liyo": 7008,
      "light": 7009,
      "##waal": 7010,
      "##wasi": 7011,
      "##washi": 7012,
      "##waah": 7013,
      "parda": 7014,
      "parchar": 7015,
      "beha": 7016,
      "besaq": 7017,
      "benefi": 7018,
      "pehn": 7019,
      "pae": 7020,
      "pawan": 7021,
      "pacha": 7022,
      "pahne": 7023,
      "let": 7024,
      "leli": 7025,
      "less": 7026,
      "dimak": 7027,
      "lahar": 7028,
      "laane": 7029,
      "laag": 7030,
      "laura": 7031,
      "laude": 7032,
      "yahe": 7033,
      "##sss": 7034,
      "##ssy": 7035,
      "##ssion": 7036,
      "khak": 7037,
      "jiti": 7038,
      "sabd": 7039,
      "chuhe": 7040,
      "chupp": 7041,
      "chuth": 7042,
      "##gij": 7043,
      "##inder": 7044,
      "huya": 7045,
      "##siya": 7046,
      "##sidy": 7047,
      "bhaiyon": 7048,
      "dou": 7049,
      "dogy": 7050,
      "doub": 7051,
      "doonga": 7052,
      "bja": 7053,
      "##alaya": 7054,
      "##abh": 7055,
      "##abi": 7056,
      "##dem": 7057,
      "##delhi": 7058,
      "sukha": 7059,
      "suwer": 7060,
      "sulag": 7061,
      "women": 7062,
      "teror": 7063,
      "unk": 7064,
      "sama": 7065,
      "samane": 7066,
      "samaye": 7067,
      "sampr": 7068,
      "samvidhan": 7069,
      "rahaga": 7070,
      "rahahai": 7071,
      "##sav": 7072,
      "thag": 7073,
      "thapp": 7074,
      "human": 7075,
      "humary": 7076,
      "humlogo": 7077,
      "sary": 7078,
      "milo": 7079,
      "mitt": 7080,
      "antak": 7081,
      "ankhe": 7082,
      "kyn": 7083,
      "bolane": 7084,
      "##mey": 7085,
      "chora": 7086,
      "choos": 7087,
      "chood": 7088,
      "janab": 7089,
      "jansat": 7090,
      "was": 7091,
      "wash": 7092,
      "ary": 7093,
      "arth": 7094,
      "arakshan": 7095,
      "cost": 7096,
      "coward": 7097,
      "colum": 7098,
      "##chad": 7099,
      "##rosh": 7100,
      "ago": 7101,
      "agya": 7102,
      "agree": 7103,
      "##eel": 7104,
      "##eef": 7105,
      "##eeee": 7106,
      "##sto": 7107,
      "shai": 7108,
      "shay": 7109,
      "shaan": 7110,
      "shama": 7111,
      "shaid": 7112,
      "baaten": 7113,
      "manu": 7114,
      "manj": 7115,
      "many": 7116,
      "manne": 7117,
      "manoge": 7118,
      "manob": 7119,
      "##jao": 7120,
      "##jaye": 7121,
      "##jayega": 7122,
      "##japati": 7123,
      "pol": 7124,
      "poja": 7125,
      "confir": 7126,
      "connect": 7127,
      "nih": 7128,
      "kamo": 7129,
      "kamane": 7130,
      "badhe": 7131,
      "##jical": 7132,
      "soya": 7133,
      "sone": 7134,
      "sote": 7135,
      "bharne": 7136,
      "bharati": 7137,
      "##gressi": 7138,
      "godhra": 7139,
      "hinduon": 7140,
      "kabza": 7141,
      "harsh": 7142,
      "##choad": 7143,
      "jabtak": 7144,
      "jabano": 7145,
      "bitha": 7146,
      "bimari": 7147,
      "jawani": 7148,
      "##utam": 7149,
      "them": 7150,
      "thek": 7151,
      "theka": 7152,
      "logone": 7153,
      "logoko": 7154,
      "batt": 7155,
      "bataiye": 7156,
      "##yoge": 7157,
      "voter": 7158,
      "##bajo": 7159,
      "role": 7160,
      "prakat": 7161,
      "prblm": 7162,
      "prakash": 7163,
      "##ashi": 7164,
      "matam": 7165,
      "dekhlo": 7166,
      "accor": 7167,
      "rakhega": 7168,
      "rakesh": 7169,
      "##tod": 7170,
      "##mition": 7171,
      "gayaa": 7172,
      "andho": 7173,
      "pain": 7174,
      "barna": 7175,
      "chalra": 7176,
      "chalate": 7177,
      "coment": 7178,
      "commit": 7179,
      "saleem": 7180,
      "jiss": 7181,
      "kitno": 7182,
      "kahata": 7183,
      "karney": 7184,
      "##shad": 7185,
      "##shahi": 7186,
      "karey": 7187,
      "karein": 7188,
      "chye": 7189,
      "chhut": 7190,
      "chhat": 7191,
      "##aniya": 7192,
      "##anies": 7193,
      "upa": 7194,
      "updesh": 7195,
      "update": 7196,
      "first": 7197,
      "rajan": 7198,
      "tmn": 7199,
      "tmko": 7200,
      "tmary": 7201,
      "tmhri": 7202,
      "tmhre": 7203,
      "kasht": 7204,
      "pakistanion": 7205,
      "mada": 7206,
      "madra": 7207,
      "madhr": 7208,
      "hmre": 7209,
      "hmlog": 7210,
      "##vek": 7211,
      "##vesh": 7212,
      "mulli": 7213,
      "akr": 7214,
      "gando": 7215,
      "vidha": 7216,
      "vivek": 7217,
      "##thy": 7218,
      "nikale": 7219,
      "niklo": 7220,
      "thos": 7221,
      "##dardi": 7222,
      "kisano": 7223,
      "daf": 7224,
      "dahe": 7225,
      "daur": 7226,
      "dawa": 7227,
      "daalo": 7228,
      "dawat": 7229,
      "karnay": 7230,
      "naidu": 7231,
      "bakh": 7232,
      "sharukh": 7233,
      "bandhi": 7234,
      "salwar": 7235,
      "yog": 7236,
      "##vahi": 7237,
      "##vaas": 7238,
      "amri": 7239,
      "sanp": 7240,
      "sangh": 7241,
      "sankal": 7242,
      "sandeep": 7243,
      "sunana": 7244,
      "leker": 7245,
      "dalalo": 7246,
      "namaj": 7247,
      "nobel": 7248,
      "darty": 7249,
      "darja": 7250,
      "jeev": 7251,
      "##zaat": 7252,
      "chupke": 7253,
      "chupane": 7254,
      "tah": 7255,
      "taq": 7256,
      "ghulam": 7257,
      "patn": 7258,
      "patr": 7259,
      "fasa": 7260,
      "##estion": 7261,
      "samajta": 7262,
      "samajwadi": 7263,
      "gusa": 7264,
      "katta": 7265,
      "katwe": 7266,
      "katwo": 7267,
      "adh": 7268,
      "ads": 7269,
      "senapati": 7270,
      "teer": 7271,
      "piy": 7272,
      "alga": 7273,
      "alert": 7274,
      "khon": 7275,
      "liyaa": 7276,
      "prove": 7277,
      "proper": 7278,
      "jeb": 7279,
      "marege": 7280,
      "samje": 7281,
      "samjhta": 7282,
      "##chit": 7283,
      "ched": 7284,
      "##ngai": 7285,
      "##nglu": 7286,
      "single": 7287,
      "usee": 7288,
      "sathi": 7289,
      "##chari": 7290,
      "##charge": 7291,
      "donate": 7292,
      "ghuske": 7293,
      "##yank": 7294,
      "marao": 7295,
      "buda": 7296,
      "buil": 7297,
      "kalam": 7298,
      "kejrival": 7299,
      "##ntalkti": 7300,
      "plane": 7301,
      "ndtvindia": 7302,
      "bhejta": 7303,
      "bhejne": 7304,
      "eske": 7305,
      "vag": 7306,
      "fod": 7307,
      "fokat": 7308,
      "##mpic": 7309,
      "krege": 7310,
      "uthate": 7311,
      "uthakr": 7312,
      "sainko": 7313,
      "tarh": 7314,
      "examp": 7315,
      "expose": 7316,
      "extre": 7317,
      "khare": 7318,
      "khareed": 7319,
      "prachaar": 7320,
      "chalao": 7321,
      "##upam": 7322,
      "##upyog": 7323,
      "##wadiyo": 7324,
      "##tute": 7325,
      "jaynge": 7326,
      "chanda": 7327,
      "enter": 7328,
      "hatane": 7329,
      "farz": 7330,
      "farji": 7331,
      "gaiy": 7332,
      "gia": 7333,
      "agr_hi": 7334,
      "smji": 7335,
      "shaheedo": 7336,
      "2013": 7337,
      "girao": 7338,
      "governor": 7339,
      "dhokhe": 7340,
      "dhongi": 7341,
      "minority": 7342,
      "dilwa": 7343,
      "chutye": 7344,
      "jinhe": 7345,
      "jinna": 7346,
      "jinki": 7347,
      "lagegi": 7348,
      "aadhi": 7349,
      "aadhe": 7350,
      "subsidy": 7351,
      "form": 7352,
      "ghaat": 7353,
      "ghatia": 7354,
      "kahani": 7355,
      "seene": 7356,
      "lgte": 7357,
      "lgti": 7358,
      "##yadatar": 7359,
      "jobs": 7360,
      "##khana": 7361,
      "riha": 7362,
      "riti": 7363,
      "ritesh": 7364,
      "rizwan": 7365,
      "##dhara": 7366,
      "detay": 7367,
      "maulvi": 7368,
      "azaadi": 7369,
      "garv": 7370,
      "garmi": 7371,
      "gardan": 7372,
      "aug": 7373,
      "auor": 7374,
      "khabarfb": 7375,
      "atankbadi": 7376,
      "bikul": 7377,
      "khbr": 7378,
      "bachcha": 7379,
      "bachpan": 7380,
      "aulade": 7381,
      "kuran": 7382,
      "kurshi": 7383,
      "chhoda": 7384,
      "haddi": 7385,
      "hadtal": 7386,
      "chunavi": 7387,
      "bahubali2": 7388,
      "companies": 7389,
      "nakshe": 7390,
      "symp": 7391,
      "naach": 7392,
      "bhadk": 7393,
      "haramj": 7394,
      "ghosit": 7395,
      "waqas": 7396,
      "##counter": 7397,
      "##copter": 7398,
      "##versi": 7399,
      "gujar": 7400,
      "budhi": 7401,
      "buddhe": 7402,
      "isey": 7403,
      "hijre": 7404,
      "pandey": 7405,
      "preshan": 7406,
      "aarti": 7407,
      "aarmi": 7408,
      "manav": 7409,
      "palan": 7410,
      "palat": 7411,
      "badalna": 7412,
      "balat": 7413,
      "dhandha": 7414,
      "##khor": 7415,
      "peenay": 7416,
      "gunde": 7417,
      "hahahhaha": 7418,
      "hahahha": 7419,
      "pichh": 7420,
      "talwe": 7421,
      ".....": 7422,
      "solution": 7423,
      "daikh": 7424,
      "##stic": 7425,
      "##stick": 7426,
      "utsav": 7427,
      "khushboo": 7428,
      "mamata": 7429,
      "behenchod": 7430,
      "results": 7431,
      "noton": 7432,
      "vika": 7433,
      "##booba": 7434,
      "jame": 7435,
      "jamana": 7436,
      "##lusi": 7437,
      "haalat": 7438,
      "dekhnay": 7439,
      "chakker": 7440,
      "bhenchod": 7441,
      "##bhakti": 7442,
      "traf": 7443,
      "sadhu": 7444,
      "loota": 7445,
      "udana": 7446,
      "udher": 7447,
      "##ause": 7448,
      "indv": 7449,
      "indust": 7450,
      "jhuti": 7451,
      "said": 7452,
      "shear": 7453,
      "varun": 7454,
      "kehtey": 7455,
      "ravis": 7456,
      "5000": 7457,
      "miss": 7458,
      "misail": 7459,
      "sikhana": 7460,
      "birodhi": 7461,
      "vishal": 7462,
      "rajneta": 7463,
      "awlad": 7464,
      "shivraj": 7465,
      "feke": 7466,
      "##aaaaa": 7467,
      "chhodkar": 7468,
      "bullet": 7469,
      "dakh": 7470,
      "##44665": 7471,
      "aagye": 7472,
      "dubai": 7473,
      "larai": 7474,
      "lathi": 7475,
      "latka": 7476,
      "ajao": 7477,
      "ajaan": 7478,
      "ajadi": 7479,
      "bhagwaan": 7480,
      "frus": 7481,
      "leaders": 7482,
      "bhokne": 7483,
      "bhokna": 7484,
      "religious": 7485,
      "daba": 7486,
      "imran": 7487,
      "shunglu": 7488,
      "besharmi": 7489,
      "besharami": 7490,
      "congra": 7491,
      "congrat": 7492,
      "kahoge": 7493,
      "jaegi": 7494,
      "ginte": 7495,
      "ginti": 7496,
      "rupay": 7497,
      "debat": 7498,
      "sambhalne": 7499,
      "etne": 7500,
      "dhiyan": 7501,
      "dukhi": 7502,
      "dukhad": 7503,
      "earning": 7504,
      "earntalkti": 7505,
      "jhande": 7506,
      "lamba": 7507,
      "luto": 7508,
      "pillo": 7509,
      "watt": 7510,
      "watan": 7511,
      "##purn": 7512,
      "aaisa": 7513,
      "camps": 7514,
      "##plus": 7515,
      "mehf": 7516,
      "behnchod": 7517,
      "##40315": 7518,
      "safai": 7519,
      "intezar": 7520,
      "foujiyo": 7521,
      "porkistani": 7522,
      "brah": 7523,
      "question": 7524,
      "training": 7525,
      "brother": 7526,
      "dhula": 7527,
      "dhund": 7528,
      "nisan": 7529,
      "nishan": 7530,
      "victim": 7531,
      "##ushka": 7532,
      "saabit": 7533,
      "katuyo": 7534,
      "chahaiye": 7535,
      "machane": 7536,
      "bethegi": 7537,
      "ansari": 7538,
      "ilaj": 7539,
      "ilaaj": 7540,
      "vaisa": 7541,
      "vasund": 7542,
      "insaaniyat": 7543,
      "paakistani": 7544,
      "shabdo": 7545,
      "rakhel": 7546,
      "akash": 7547,
      "qurbani": 7548,
      "horahi": 7549,
      "interview": 7550,
      "group": 7551,
      "hakikat": 7552,
      "naveed": 7553,
      "bahka": 7554,
      "hizde": 7555,
      "hizdo": 7556,
      "maharashtra": 7557,
      "ghatnaaye": 7558,
      "pishab": 7559,
      "intjar": 7560,
      "charges": 7561,
      "jumlebaj": 7562,
      "abdulla": 7563,
      "90000": 7564,
      "pdta": 7565,
      "##232": 7566,
      "kiyun": 7567,
      "neech": 7568,
      "doosre": 7569,
      "cameraman": 7570,
      "pedawar": 7571,
      "jimmedar": 7572,
      "naakaamiyo": 7573,
      "fakir": 7574,
      "stage": 7575,
      "##ledge": 7576,
      "mughal": 7577,
      "marketing": 7578,
      "##wahish": 7579,
      "peshap": 7580,
      "peshab": 7581,
      "kamjori": 7582,
      "bhonkne": 7583,
      "2229": 7584,
      "9840315": 7585,
      "beroz": 7586,
      "bhajpa": 7587,
      "bheekh": 7588,
      "allowed": 7589,
      "expert": 7590,
      "agenda": 7591,
      "missiles": 7592,
      "nonsen": 7593,
      "seekh": 7594,
      "doctors": 7595,
      "comedy": 7596,
      "congresiyo": 7597,
      "kharidna": 7598,
      "civili": 7599,
      "fuddu": 7600,
      "grih": 7601,
      "icj": 7602,
      "ryt": 7603,
      "maalum": 7604,
      "protest": 7605,
      "facebook_corpus_msr_62": 7606,
      "****": 7607,
      "ganesh": 7608,
      "model": 7609,
      "hafeez": 7610,
      "prabhas": 7611,
      "sports": 7612,
      "center": 7613,
      "phenk": 7614,
      "student": 7615,
      "factory": 7616,
      "vadiyo": 7617,
      "begunah": 7618,
      "pahunchati": 7619,
      "sindh": 7620,
      "##singh": 7621,
      "##cbank": 7622,
      "lashkar": 7623,
      "simran": 7624,
      "industri": 7625,
      "career": 7626,
      "germany": 7627,
      "jindgi": 7628,
      "vhp": 7629,
      "music": 7630,
      "boxr": 7631,
      "khamosh": 7632,
      "waalon": 7633,
      "shahido": 7634,
      "pradeep": 7635,
      "vipachh": 7636,
      "patanjali": 7637,
      "every": 7638,
      "hdfcbank": 7639,
      "adarsh": 7640,
      "ibra": 7641,
      "jnta": 7642,
      "stand": 7643,
      "chattisgarh": 7644,
      "gotala": 7645,
      "##llywood": 7646,
      "naitikta": 7647,
      "bakbas": 7648,
      "simple": 7649,
      "kalboshan": 7650,
      "spoke": 7651,
      "dhanyabad": 7652,
      "rupaye": 7653,
      "haqiqat": 7654,
      "whitewashi": 7655,
      "players": 7656,
      "17744665": 7657,
      "culture": 7658,
      "without": 7659,
      "kolkata": 7660,
      "hoshiyaar": 7661,
      "deekha": 7662,
      "bohnk": 7663,
      "samarthak": 7664,
      "remove": 7665,
      "dikhney": 7666,
      "stupid": 7667,
      "fayeda": 7668,
      "experience": 7669,
      "1lacs": 7670,
      "aditya": 7671,
      "dhabba": 7672,
      "fraud": 7673,
      "iraq": 7674,
      "olympic": 7675,
      "karidari": 7676,
      "degree": 7677,
      "instead": 7678,
      "mukesh": 7679,
      "doubt": 7680,
      "thappad": 7681,
      "jansatta": 7682,
      "manobal": 7683,
      "confirm": 7684,
      "according": 7685,
      "committee": 7686,
      "madhrchod": 7687,
      "sankalp": 7688,
      "example": 7689,
      "agr_hi_": 7690,
      "industry": 7691,
      "earntalktime": 7692,
      "9840315232": 7693,
      "nonsense": 7694,
      "whitewashing": 7695,
      ".-": 7696,
      "/-": 7697,
      "0b": 7698,
      "23": 7699,
      "3tal": 7700,
      "420": 7701,
      "55": 7702,
      "5sal": 7703,
      "62": 7704,
      "700": 7705,
      "897": 7706,
      "96": 7707,
      "97": 7708,
      "980": 7709,
      "aq": 7710,
      "ain": 7711,
      "aala": 7712,
      "ame": 7713,
      "aami": 7714,
      "att": 7715,
      "aade": 7716,
      "aant": 7717,
      "ajit": 7718,
      "agay": 7719,
      "atom": 7720,
      "agaye": 7721,
      "astha": 7722,
      "aunty": 7723,
      "bv": 7724,
      "bon": 7725,
      "bdey": 7726,
      "cu": 7727,
      "cl": 7728,
      "cc": 7729,
      "cf": 7730,
      "cas": 7731,
      "candi": 7732,
      "cance": 7733,
      "cool": 7734,
      "click": 7735,
      "dya": 7736,
      "dad": 7737,
      "dhee": 7738,
      "dwara": 7739,
      "dadhi": 7740,
      "ehi": 7741,
      "esh": 7742,
      "ess": 7743,
      "euro": 7744,
      "effect": 7745,
      "fata": 7746,
      "fed": 7747,
      "food": 7748,
      "fakr": 7749,
      "flag": 7750,
      "flight": 7751,
      "gra": 7752,
      "gare": 7753,
      "gut": 7754,
      "gund": 7755,
      "glu": 7756,
      "gran": 7757,
      "hp": 7758,
      "hye": 7759,
      "hra": 7760,
      "hali": 7761,
      "hati": 7762,
      "hma": 7763,
      "hurt": 7764,
      "hriti": 7765,
      "ia": 7766,
      "iq": 7767,
      "jl": 7768,
      "jale": 7769,
      "jina": 7770,
      "jld": 7771,
      "kg": 7772,
      "kta": 7773,
      "ksh": 7774,
      "kki": 7775,
      "kali": 7776,
      "kma": 7777,
      "lr": 7778,
      "lata": 7779,
      "lakar": 7780,
      "mm": 7781,
      "mna": 7782,
      "mra": 7783,
      "male": 7784,
      "mri": 7785,
      "mro": 7786,
      "maliya": 7787,
      "nda": 7788,
      "nari": 7789,
      "nani": 7790,
      "oe": 7791,
      "oo": 7792,
      "osa": 7793,
      "ohh": 7794,
      "oulad": 7795,
      "pg": 7796,
      "ps": 7797,
      "pc": 7798,
      "pdi": 7799,
      "pda": 7800,
      "pale": 7801,
      "pala": 7802,
      "pul": 7803,
      "pand": 7804,
      "pana": 7805,
      "ppt": 7806,
      "ponch": 7807,
      "qa": 7808,
      "qo": 7809,
      "ric": 7810,
      "rally": 7811,
      "rcb": 7812,
      "sko": 7813,
      "soo": 7814,
      "sate": 7815,
      "sic": 7816,
      "sche": 7817,
      "slam": 7818,
      "squ": 7819,
      "tale": 7820,
      "tro": 7821,
      "tee": 7822,
      "t20": 7823,
      "teek": 7824,
      "uon": 7825,
      "ush": 7826,
      "ugar": 7827,
      "udha": 7828,
      "umid": 7829,
      "vaj": 7830,
      "vaadi": 7831,
      "vyarth": 7832,
      "vyakti": 7833,
      "wle": 7834,
      "wla": 7835,
      "why": 7836,
      "wicket": 7837,
      "werna": 7838,
      "wedding": 7839,
      "xxx": 7840,
      "yun": 7841,
      "yaise": 7842,
      "zra": 7843,
      "zind": 7844,
      "zakir": 7845,
      "##afi": 7846,
      "##md": 7847,
      "##mis": 7848,
      "##mki": 7849,
      "##male": 7850,
      "##uta": 7851,
      "##uka": 7852,
      "##uba": 7853,
      "##ues": 7854,
      "##nath": 7855,
      "##dr": 7856,
      "##dse": 7857,
      "##dut": 7858,
      "##doot": 7859,
      "##ew": 7860,
      "##rment": 7861,
      "##rdo": 7862,
      "##rail": 7863,
      "##hk": 7864,
      "##hhi": 7865,
      "##lte": 7866,
      "##lakh": 7867,
      "##oko": 7868,
      "##ount": 7869,
      "##khi": 7870,
      "##kke": 7871,
      "##gda": 7872,
      "##io": 7873,
      "##iti": 7874,
      "##ior": 7875,
      "##iyan": 7876,
      "##844": 7877,
      "##sg": 7878,
      "##shu": 7879,
      "##sir": 7880,
      "##smati": 7881,
      "##tm": 7882,
      "##tai": 7883,
      "##tne": 7884,
      "##tain": 7885,
      "##try": 7886,
      "##cast": 7887,
      "##ctive": 7888,
      "##pro": 7889,
      "##pend": 7890,
      "##vale": 7891,
      "##vati": 7892,
      "##jal": 7893,
      "##jane": 7894,
      "##yoo": 7895,
      "##zon": 7896,
      "##zana": 7897,
      "##571": 7898,
      "##bali": 7899,
      "##_le": 7900,
      "##_id": 7901,
      "##68": 7902,
      "##22": 7903,
      "##24": 7904,
      "##2js": 7905,
      "##49": 7906,
      "##wla": 7907,
      "##woo": 7908,
      "##wade": 7909,
      "##wise": 7910,
      "##fai": 7911,
      "##fat": 7912,
      "##fti": 7913,
      "##fri": 7914,
      "##fji": 7915,
      "##faa": 7916,
      "##faj": 7917,
      "##34": 7918,
      "##933": 7919,
      "##aris": 7920,
      "##ardasti": 7921,
      "##hah": 7922,
      "##haan": 7923,
      "##hana": 7924,
      "##aida": 7925,
      "##aign": 7926,
      "haie": 7927,
      "##atri": 7928,
      "kio": 7929,
      "kill": 7930,
      "kitana": 7931,
      "kitani": 7932,
      "kaay": 7933,
      "kosh": 7934,
      "koro": 7935,
      "koyi": 7936,
      "koshi": 7937,
      "koyee": 7938,
      "kohin": 7939,
      "##yaani": 7940,
      "##hela": 7941,
      "##heen": 7942,
      "##dik": 7943,
      "##diyo": 7944,
      "##diers": 7945,
      "hot": 7946,
      "hoye": 7947,
      "hove": 7948,
      "hova": 7949,
      "hokum": 7950,
      "hours": 7951,
      "hosakta": 7952,
      "karj": 7953,
      "karz": 7954,
      "karra": 7955,
      "karati": 7956,
      "karba": 7957,
      "karny": 7958,
      "karyal": 7959,
      "karwana": 7960,
      "medi": 7961,
      "mehan": 7962,
      "mery": 7963,
      "dedi": 7964,
      "dein": 7965,
      "dead": 7966,
      "dera": 7967,
      "deko": 7968,
      "deol": 7969,
      "defe": 7970,
      "deob": 7971,
      "demag": 7972,
      "nayi": 7973,
      "nasha": 7974,
      "navi": 7975,
      "nagar": 7976,
      "nawaj": 7977,
      "kere": 7978,
      "kelia": 7979,
      "toe": 7980,
      "##tab": 7981,
      "baw": 7982,
      "basi": 7983,
      "babar": 7984,
      "bahat": 7985,
      "baans": 7986,
      "bazar": 7987,
      "baag": 7988,
      "bagai": 7989,
      "##urg": 7990,
      "##news": 7991,
      "##tegi": 7992,
      "##tend": 7993,
      "##naya": 7994,
      "sele": 7995,
      "seen": 7996,
      "seva": 7997,
      "sehna": 7998,
      "search": 7999,
      "jaari": 8000,
      "jaay": 8001,
      "java": 8002,
      "jaakar": 8003,
      "jawo": 8004,
      "jasee": 8005,
      "##isi": 8006,
      "sada": 8007,
      "sahiye": 8008,
      "saas": 8009,
      "save": 8010,
      "sawar": 8011,
      "sashan": 8012,
      "sayed": 8013,
      "rad": 8014,
      "ray": 8015,
      "rafji": 8016,
      "##uman": 8017,
      "##umat": 8018,
      "##adat": 8019,
      "##addi": 8020,
      "##hushan": 8021,
      "##tik": 8022,
      "##tiy": 8023,
      "##tition": 8024,
      "##tics": 8025,
      "##tival": 8026,
      "##haram": 8027,
      "##ering": 8028,
      "##chhi": 8029,
      "##shna": 8030,
      "inme": 8031,
      "into": 8032,
      "indo": 8033,
      "inlog": 8034,
      "indea": 8035,
      "injur": 8036,
      "incident": 8037,
      "yeha": 8038,
      "yeto": 8039,
      "aache": 8040,
      "aachi": 8041,
      "aayga": 8042,
      "aazad": 8043,
      "nahii": 8044,
      "chaar": 8045,
      "chaal": 8046,
      "chang": 8047,
      "chapal": 8048,
      "chaplus": 8049,
      "##lena": 8050,
      "##gesh": 8051,
      "neft": 8052,
      "local": 8053,
      "look": 8054,
      "hifa": 8055,
      "mote": 8056,
      "moon": 8057,
      "most": 8058,
      "##rent": 8059,
      "bhada": 8060,
      "bhaav": 8061,
      "mac": 8062,
      "maata": 8063,
      "abto": 8064,
      "abadi": 8065,
      "abuse": 8066,
      "##laya": 8067,
      "##laye": 8068,
      "##iram": 8069,
      "apk": 8070,
      "aps": 8071,
      "apmaan": 8072,
      "apeel": 8073,
      "##ses": 8074,
      "##sent": 8075,
      "##lion": 8076,
      "##live": 8077,
      "paka": 8078,
      "paksh": 8079,
      "pakke": 8080,
      "##daa": 8081,
      "##daari": 8082,
      "kuc": 8083,
      "kub": 8084,
      "kutey": 8085,
      "mutro": 8086,
      "muft": 8087,
      "tumah": 8088,
      "tumhra": 8089,
      "tumnae": 8090,
      "tumhry": 8091,
      "hau": 8092,
      "haari": 8093,
      "haain": 8094,
      "hasti": 8095,
      "kyaaa": 8096,
      "krnge": 8097,
      "isha": 8098,
      "isai": 8099,
      "isase": 8100,
      "isaki": 8101,
      "boo": 8102,
      "boya": 8103,
      "boliye": 8104,
      "bottle": 8105,
      "gav": 8106,
      "gawo": 8107,
      "gautam": 8108,
      "##unce": 8109,
      "logg": 8110,
      "hea": 8111,
      "heal": 8112,
      "heart": 8113,
      "jori": 8114,
      "joker": 8115,
      "marg": 8116,
      "maren": 8117,
      "marri": 8118,
      "marde": 8119,
      "bann": 8120,
      "banara": 8121,
      "bando": 8122,
      "banake": 8123,
      "baniye": 8124,
      "deshbh": 8125,
      "lion": 8126,
      "##ora": 8127,
      "paramp": 8128,
      "bek": 8129,
      "beto": 8130,
      "beaf": 8131,
      "bekaar": 8132,
      "beau": 8133,
      "betho": 8134,
      "bequf": 8135,
      "pele": 8136,
      "peche": 8137,
      "pehna": 8138,
      "pelne": 8139,
      "pehale": 8140,
      "peeny": 8141,
      "pac": 8142,
      "pack": 8143,
      "pawar": 8144,
      "pawer": 8145,
      "papi": 8146,
      "leja": 8147,
      "lelo": 8148,
      "leay": 8149,
      "leone": 8150,
      "dip": 8151,
      "dill": 8152,
      "diyan": 8153,
      "diwas": 8154,
      "laf": 8155,
      "layega": 8156,
      "layenge": 8157,
      "yasir": 8158,
      "khake": 8159,
      "khaki": 8160,
      "khakar": 8161,
      "khaate": 8162,
      "khalo": 8163,
      "khaas": 8164,
      "khaber": 8165,
      "##raa": 8166,
      "jig": 8167,
      "jimedar": 8168,
      "sabku": 8169,
      "sabaq": 8170,
      "aaptar": 8171,
      "chune": 8172,
      "chulu": 8173,
      "##nies": 8174,
      "##inde": 8175,
      "hug": 8176,
      "huy": 8177,
      "huee": 8178,
      "hamko": 8179,
      "hamaare": 8180,
      "##kay": 8181,
      "##kaad": 8182,
      "##kara": 8183,
      "bhaii": 8184,
      "bhaijan": 8185,
      "ekdam": 8186,
      "ekdm": 8187,
      "hindos": 8188,
      "doda": 8189,
      "raheta": 8190,
      "rahena": 8191,
      "tube": 8192,
      "tujha": 8193,
      "tulna": 8194,
      "##riya": 8195,
      "##ricity": 8196,
      "##ritesh": 8197,
      "##able": 8198,
      "##deek": 8199,
      "suv": 8200,
      "suic": 8201,
      "sugar": 8202,
      "sutr": 8203,
      "sucide": 8204,
      "suvidha": 8205,
      "unpe": 8206,
      "samp": 8207,
      "samb": 8208,
      "samny": 8209,
      "samose": 8210,
      "jaiye": 8211,
      "rahai": 8212,
      "##sas": 8213,
      "##saal": 8214,
      "thai": 8215,
      "thats": 8216,
      "humse": 8217,
      "humane": 8218,
      "humaare": 8219,
      "sarj": 8220,
      "miti": 8221,
      "anand": 8222,
      "anshan": 8223,
      "ankur": 8224,
      "anushka": 8225,
      "##0000": 8226,
      "##00lj": 8227,
      "usk": 8228,
      "usp": 8229,
      "dekhu": 8230,
      "##ushan": 8231,
      "##usuf": 8232,
      "##mee": 8233,
      "##mein": 8234,
      "##alia": 8235,
      "chow": 8236,
      "choor": 8237,
      "chotu": 8238,
      "jany": 8239,
      "janvar": 8240,
      "janlok": 8241,
      "waa": 8242,
      "waja": 8243,
      "red": 8244,
      "read": 8245,
      "reas": 8246,
      "recharge": 8247,
      "##athy": 8248,
      "art": 8249,
      "armey": 8250,
      "##ngey": 8251,
      "coz": 8252,
      "colo": 8253,
      "##chat": 8254,
      "##roy": 8255,
      "agla": 8256,
      "aggress": 8257,
      "shash": 8258,
      "shakil": 8259,
      "manta": 8260,
      "manna": 8261,
      "mantra": 8262,
      "##uler": 8263,
      "taky": 8264,
      "takkar": 8265,
      "taking": 8266,
      "polti": 8267,
      "poster": 8268,
      "##andan": 8269,
      "confi": 8270,
      "condem": 8271,
      "niy": 8272,
      "nipt": 8273,
      "nived": 8274,
      "hogaa": 8275,
      "khula": 8276,
      "khujali": 8277,
      "kamm": 8278,
      "kamse": 8279,
      "kamiya": 8280,
      "kamaye": 8281,
      "badl": 8282,
      "bado": 8283,
      "badale": 8284,
      "badhta": 8285,
      "##jicl": 8286,
      "sob": 8287,
      "soye": 8288,
      "sona": 8289,
      "soja": 8290,
      "sowar": 8291,
      "bhare": 8292,
      "bharte": 8293,
      "bharath": 8294,
      "sakata": 8295,
      "##gres": 8296,
      "gou": 8297,
      "gol": 8298,
      "dikat": 8299,
      "dikho": 8300,
      "dikhte": 8301,
      "dikhna": 8302,
      "dikao": 8303,
      "dikhani": 8304,
      "harmi": 8305,
      "harqat": 8306,
      "jayengi": 8307,
      "##choda": 8308,
      "##chode": 8309,
      "bita": 8310,
      "jawanon": 8311,
      "##utr": 8312,
      "sahib": 8313,
      "their": 8314,
      "thekedar": 8315,
      "##mas": 8316,
      "batti": 8317,
      "baton": 8318,
      "batain": 8319,
      "##cept": 8320,
      "roko": 8321,
      "roka": 8322,
      "romi": 8323,
      "roshan": 8324,
      "rocket": 8325,
      "##asan": 8326,
      "##asna": 8327,
      "matt": 8328,
      "matha": 8329,
      "matter": 8330,
      "matalab": 8331,
      "lagu": 8332,
      "lagya": 8333,
      "lagna": 8334,
      "lagati": 8335,
      "actu": 8336,
      "acid": 8337,
      "newspap": 8338,
      "##mic": 8339,
      "##aao": 8340,
      "##aayi": 8341,
      "##mance": 8342,
      "padho": 8343,
      "padhta": 8344,
      "padhne": 8345,
      "barkha": 8346,
      "purr": 8347,
      "pury": 8348,
      "purush": 8349,
      "dikhayega": 8350,
      "station": 8351,
      "bhosh": 8352,
      "bhouk": 8353,
      "chalisa": 8354,
      "saley": 8355,
      "maafi": 8356,
      "jisa": 8357,
      "kitny": 8358,
      "kahaan": 8359,
      "kahate": 8360,
      "chd": 8361,
      "chlo": 8362,
      "chhiye": 8363,
      "churi": 8364,
      "chura": 8365,
      "##ments": 8366,
      "##vit": 8367,
      "##ukt": 8368,
      "upasna": 8369,
      "##ichut": 8370,
      "raje": 8371,
      "##ots": 8372,
      "puj": 8373,
      "pune": 8374,
      "puchiye": 8375,
      "chutie": 8376,
      "mily": 8377,
      "milane": 8378,
      "hmary": 8379,
      "##veer": 8380,
      "akh": 8381,
      "akhri": 8382,
      "akhand": 8383,
      "akrosh": 8384,
      "##pping": 8385,
      "view": 8386,
      "tereko": 8387,
      "kaamo": 8388,
      "nindaa": 8389,
      "perfor": 8390,
      "perfect": 8391,
      "abhishe": 8392,
      "abhijit": 8393,
      "abhinav": 8394,
      "jaisey": 8395,
      "thore": 8396,
      "chije": 8397,
      "chidiya": 8398,
      "chinies": 8399,
      "pmo": 8400,
      "ladane": 8401,
      "ladenge": 8402,
      "kismat": 8403,
      "kisiki": 8404,
      "kashmiris": 8405,
      "dharne": 8406,
      "dau": 8407,
      "daar": 8408,
      "dava": 8409,
      "dauda": 8410,
      "##amil": 8411,
      "##cher": 8412,
      "bhagto": 8413,
      "bhagwat": 8414,
      "naik": 8415,
      "naisad": 8416,
      "bako": 8417,
      "bakvas": 8418,
      "suraj": 8419,
      "survey": 8420,
      "##cker": 8421,
      "sharab": 8422,
      "sharing": 8423,
      "shariyat": 8424,
      "shareef": 8425,
      "bandhu": 8426,
      "bandook": 8427,
      "chodunga": 8428,
      "sallo": 8429,
      "yodi": 8430,
      "##vaye": 8431,
      "##vasi": 8432,
      "salah": 8433,
      "amount": 8434,
      "sanda": 8435,
      "santh": 8436,
      "sankhya": 8437,
      "sunti": 8438,
      "dalte": 8439,
      "dalna": 8440,
      "namar": 8441,
      "namon": 8442,
      "0000": 8443,
      "maarenge": 8444,
      "##biya": 8445,
      "##istr": 8446,
      "##istar": 8447,
      "darh": 8448,
      "darta": 8449,
      "darshan": 8450,
      "bcoz": 8451,
      "walao": 8452,
      "taar": 8453,
      "tavi": 8454,
      "batayega": 8455,
      "bataao": 8456,
      "ghusa": 8457,
      "pehley": 8458,
      "patti": 8459,
      "pattar": 8460,
      "taras": 8461,
      "fast": 8462,
      "fahmi": 8463,
      "faaltu": 8464,
      "##eshi": 8465,
      "samajdar": 8466,
      "guard": 8467,
      "gulaam": 8468,
      "kato": 8469,
      "katal": 8470,
      "katke": 8471,
      "katwa": 8472,
      "katkar": 8473,
      "adha": 8474,
      "adhe": 8475,
      "teh": 8476,
      "tej": 8477,
      "tech": 8478,
      "text": 8479,
      "jatay": 8480,
      "pite": 8481,
      "pill": 8482,
      "sit": 8483,
      "lagay": 8484,
      "alwa": 8485,
      "khansi": 8486,
      "promo": 8487,
      "jaag": 8488,
      "jaahil": 8489,
      "burkha": 8490,
      "burbak": 8491,
      "jel": 8492,
      "baadh": 8493,
      "##ndtv": 8494,
      "trf": 8495,
      "true": 8496,
      "trust": 8497,
      "kerke": 8498,
      "##fied": 8499,
      "##hatya": 8500,
      "chela": 8501,
      "cheating": 8502,
      "dengey": 8503,
      "singer": 8504,
      "ajate": 8505,
      "usey": 8506,
      "asar": 8507,
      "##logy": 8508,
      "atyachar": 8509,
      "elect": 8510,
      "nakse": 8511,
      "nakab": 8512,
      "achaa": 8513,
      "once": 8514,
      "shik": 8515,
      "shina": 8516,
      "shiela": 8517,
      "jalte": 8518,
      "##jection": 8519,
      "likhi": 8520,
      "likho": 8521,
      "jban": 8522,
      "jbab": 8523,
      "##paya": 8524,
      "bulao": 8525,
      "kaladhan": 8526,
      "bhun": 8527,
      "bhukha": 8528,
      "bhubali": 8529,
      "105": 8530,
      "1038": 8531,
      "halal": 8532,
      "chare": 8533,
      "gea": 8534,
      "gey": 8535,
      "aatm": 8536,
      "aatnki": 8537,
      "nikalenge": 8538,
      "bhejna": 8539,
      "bhejenge": 8540,
      "shop": 8541,
      "esme": 8542,
      "esliye": 8543,
      "vaar": 8544,
      "vasa": 8545,
      "vaalo": 8546,
      "vaqt": 8547,
      "vacan": 8548,
      "jaanch": 8549,
      "issko": 8550,
      "kren": 8551,
      "uthake": 8552,
      "hamein": 8553,
      "hamesh": 8554,
      "tark": 8555,
      "tarike": 8556,
      "exe": 8557,
      "exam": 8558,
      "khari": 8559,
      "prabhu": 8560,
      "spot": 8561,
      "juda": 8562,
      "malya": 8563,
      "malda": 8564,
      "mallick": 8565,
      "##ratri": 8566,
      "##wadiyon": 8567,
      "jaygi": 8568,
      "encounter": 8569,
      "gayhind": 8570,
      "gayatri": 8571,
      "pagalpan": 8572,
      "evam": 8573,
      "farukh": 8574,
      "##zid": 8575,
      "gita": 8576,
      "gift": 8577,
      "smje": 8578,
      "smriti": 8579,
      "kyunke": 8580,
      "khet": 8581,
      "khela": 8582,
      "kheda": 8583,
      "khelo": 8584,
      "khelaf": 8585,
      "sarey": 8586,
      "says": 8587,
      "password": 8588,
      "haramiyon": 8589,
      "faiz": 8590,
      "failao": 8591,
      "giraf": 8592,
      "giraye": 8593,
      "dhoti": 8594,
      "dhoond": 8595,
      "filmy": 8596,
      "jinnah": 8597,
      "aadhar": 8598,
      "dekhane": 8599,
      "yogiji": 8600,
      "bnaye": 8601,
      "format": 8602,
      "formula": 8603,
      "chahea": 8604,
      "masala": 8605,
      "masoom": 8606,
      "ghada": 8607,
      "##dhaan": 8608,
      "desbhakti": 8609,
      "khilap": 8610,
      "##dua": 8611,
      "aub": 8612,
      "jagao": 8613,
      "wahh": 8614,
      "ayesha": 8615,
      "khya": 8616,
      "khwahish": 8617,
      "bachne": 8618,
      "lallu": 8619,
      "bolege": 8620,
      "zindabaad": 8621,
      "##beat": 8622,
      "rehty": 8623,
      "bnn": 8624,
      "bnai": 8625,
      "bnan": 8626,
      "veg": 8627,
      "vemula": 8628,
      "##zzati": 8629,
      "islamabad": 8630,
      "american": 8631,
      "aamne": 8632,
      "hrs": 8633,
      "murga": 8634,
      "aulado": 8635,
      "jatiwad": 8636,
      "complain": 8637,
      "comparis": 8638,
      "virat": 8639,
      "chutiyee": 8640,
      "naksli": 8641,
      "ghoshit": 8642,
      "##cose": 8643,
      "rahke": 8644,
      "rahkar": 8645,
      "puchh": 8646,
      "puchte": 8647,
      "problems": 8648,
      "fatne": 8649,
      "idhr": 8650,
      "majeed": 8651,
      "letey": 8652,
      "gujrati": 8653,
      "drink": 8654,
      "ganta": 8655,
      "ganna": 8656,
      "ganga": 8657,
      "isee": 8658,
      "kahena": 8659,
      "hijdi": 8660,
      "hijro": 8661,
      "rojgar": 8662,
      "pancha": 8663,
      "presan": 8664,
      "mangne": 8665,
      "mangoge": 8666,
      "aarha": 8667,
      "wesa": 8668,
      "##with": 8669,
      "krtay": 8670,
      "palne": 8671,
      "bapu": 8672,
      "notes": 8673,
      "srm": 8674,
      "guns": 8675,
      "poocho": 8676,
      "bajate": 8677,
      "maante": 8678,
      "hahaaha": 8679,
      "hahaahaha": 8680,
      "chudwane": 8681,
      "pichhle": 8682,
      "soluk": 8683,
      "banegi": 8684,
      "##chand": 8685,
      "zaruri": 8686,
      "bajaye": 8687,
      "bajaee": 8688,
      "jahaj": 8689,
      "tumlogon": 8690,
      "prize": 8691,
      "ruke": 8692,
      "vikash": 8693,
      "##buba": 8694,
      "bachenge": 8695,
      "bewakof": 8696,
      "aakhe": 8697,
      "jhaat": 8698,
      "jamin": 8699,
      "raajniti": 8700,
      "atankiyo": 8701,
      "bombing": 8702,
      "khalid": 8703,
      "shakl": 8704,
      "udaa": 8705,
      "udaane": 8706,
      "chakka": 8707,
      "adhikaar": 8708,
      "adhikari": 8709,
      "##trump": 8710,
      "kapoor": 8711,
      "jungle": 8712,
      "junior": 8713,
      "istife": 8714,
      "samjhdar": 8715,
      "bangali": 8716,
      "banglad": 8717,
      "atankwadiyon": 8718,
      "udane": 8719,
      "aatankvadi": 8720,
      "brain": 8721,
      "jhuka": 8722,
      "jhund": 8723,
      "saini": 8724,
      "varana": 8725,
      "varosa": 8726,
      "keep": 8727,
      "keemat": 8728,
      "keechad": 8729,
      "kashmirio": 8730,
      "kashmiriyo": 8731,
      "misal": 8732,
      "karwata": 8733,
      "gaey": 8734,
      "command": 8735,
      "biryaani": 8736,
      "hmesa": 8737,
      "ulti": 8738,
      "vishe": 8739,
      "cru": 8740,
      "corre": 8741,
      "luta": 8742,
      "##minister": 8743,
      "chahya": 8744,
      "rajnetao": 8745,
      "##sharma": 8746,
      "jaraha": 8747,
      "deshdroh": 8748,
      "bechari": 8749,
      "powerpo": 8750,
      "cheej": 8751,
      "allha": 8752,
      "female": 8753,
      "##joy": 8754,
      "buzdi": 8755,
      "##441": 8756,
      "larne": 8757,
      "larki": 8758,
      "lato": 8759,
      "narak": 8760,
      "narend": 8761,
      "srif": 8762,
      "mahadev": 8763,
      "baithna": 8764,
      "baithkar": 8765,
      "bycott": 8766,
      "france": 8767,
      "front": 8768,
      "juth": 8769,
      "juthe": 8770,
      "bigde": 8771,
      "biwion": 8772,
      "bhokta": 8773,
      "madrchodo": 8774,
      "dabang": 8775,
      "pahla": 8776,
      "pahly": 8777,
      "punjabi": 8778,
      "amiro": 8779,
      "tayari": 8780,
      "behanchod": 8781,
      "congressiyo": 8782,
      "oska": 8783,
      "rupya": 8784,
      "rupye": 8785,
      "suruwat": 8786,
      "utarne": 8787,
      "defense": 8788,
      "love_le": 8789,
      "partiyo": 8790,
      "launde": 8791,
      "badhane": 8792,
      "dangal": 8793,
      "dhika": 8794,
      "dhikha": 8795,
      "jhant": 8796,
      "lutne": 8797,
      "place": 8798,
      "plastic": 8799,
      "##astra": 8800,
      "kayaro": 8801,
      "samjhenge": 8802,
      "withdra": 8803,
      "caror": 8804,
      "campus": 8805,
      "campaign": 8806,
      "ilake": 8807,
      "iljam": 8808,
      "krwao": 8809,
      "paresani": 8810,
      "musalmaano": 8811,
      "gulamo": 8812,
      "baby": 8813,
      "intejar": 8814,
      "intelli": 8815,
      "interest": 8816,
      "mager": 8817,
      "chhap": 8818,
      "thokte": 8819,
      "porkis": 8820,
      "##poli": 8821,
      "##\u0000\u0000\u0000\u0000\u0000\u0000\u0000\u0000\u0000\u0000\u0000\u0000\u0000\u0000\u0000\u0000\u0000\u0000\u0000\u0000\u0000\u0000\u0000\u0000\u0000\u0000\u0000\u0000\u0000\u0000\u0000\u0000\u0000\u0000\u0000\u0000\u0000\u0000\u0000\u0000\u0000\u0000\u0000\u0000\u0000\u0000\u0000\u0000\u0000\u0000\u0000\u0000\u0000\u0000\u0000\u0000\u0000\u0000\u0000\u0000\u0000\u0000\u0000\u0000\u0000\u0000\u0000\u0000\u0000\u0000\u0000\u0000\u0000\u0000\u0000\u0000\u0000\u0000\u0000\u0000\u0000\u0000\u0000\u0000\u0000\u0000\u0000\u0000\u0000\u0000\u0000\u0000\u0000\u0000\u0000\u0000\u0000\u0000\u0000\u0000\u0000\u0000\u0000\u0000\u0000\u0000\u0000\u0000\u0000\u0000\u0000\u0000\u0000\u0000\u0000\u0000\u0000\u0000\u0000\u0000\u0000\u0000\u0000\u0000\u0000\u0000\u0000\u0000\u0000\u0000\u0000\u0000\u0000\u0000\u0000\u0000\u0000\u0000\u0000\u0000\u0000\u0000\u0000\u0000\u0000\u0000\u0000\u0000\u0000\u0000\u0000\u0000\u0000\u0000\u0000\u0000\u0000\u0000\u0000\u0000": 8822,
      "asay": 8823,
      "here": 8824,
      "pyara": 8825,
      "swiss": 8826,
      "swaraj": 8827,
      "angrejo": 8828,
      "bulaye": 8829,
      "loudsp": 8830,
      "treatment": 8831,
      "##3335": 8832,
      "hojaye": 8833,
      "series": 8834,
      "youth": 8835,
      "parivartan": 8836,
      "sahb": 8837,
      "sahyog": 8838,
      "chahate": 8839,
      "chahaki": 8840,
      "machaya": 8841,
      "laathi": 8842,
      "jitegi": 8843,
      "reporter": 8844,
      "125crore": 8845,
      "fuckistan": 8846,
      "ilawa": 8847,
      "vasant": 8848,
      "vastav": 8849,
      "##prate": 8850,
      "hosla": 8851,
      "baatein": 8852,
      "backchodi": 8853,
      "beej": 8854,
      "girls": 8855,
      "1400": 8856,
      "chennai": 8857,
      "version": 8858,
      "##lanka": 8859,
      "napaki": 8860,
      "bayanbazi": 8861,
      "mayawati": 8862,
      "pooray": 8863,
      "sansk": 8864,
      "batayen": 8865,
      "grover": 8866,
      "karyavahi": 8867,
      "baazi": 8868,
      "baahubali": 8869,
      "chupaane": 8870,
      "chupaake": 8871,
      "jaayen": 8872,
      "officers": 8873,
      "fikr": 8874,
      "funny": 8875,
      "swast": 8876,
      "vedo": 8877,
      "tumhaare": 8878,
      "hmaray": 8879,
      "abdullah": 8880,
      "tirange": 8881,
      "##chud": 8882,
      "bachon": 8883,
      "neeche": 8884,
      "khaskar": 8885,
      "doosri": 8886,
      "collection": 8887,
      "address": 8888,
      "dangy": 8889,
      "fenk": 8890,
      "zeeshan": 8891,
      "kachre": 8892,
      "antaki": 8893,
      "androoni": 8894,
      "chhed": 8895,
      "jhoote": 8896,
      "otherwise": 8897,
      "shrm": 8898,
      "shrad": 8899,
      "##gative": 8900,
      "kajru": 8901,
      "nachne": 8902,
      "bhrashtachar": 8903,
      "mahilaon": 8904,
      "clean": 8905,
      "discu": 8906,
      "dataset": 8907,
      "gormint": 8908,
      "jesy": 8909,
      "##qaat": 8910,
      "depart": 8911,
      "gaurak": 8912,
      "contin": 8913,
      "pigs": 8914,
      "lutere": 8915,
      "358": 8916,
      "bkwas": 8917,
      "friday": 8918,
      "ldki": 8919,
      "mentality": 8920,
      "mujhy": 8921,
      "kripa": 8922,
      "beimaan": 8923,
      "sudhrenge": 8924,
      "comedian": 8925,
      "jaghao": 8926,
      "eddy": 8927,
      "fadnav": 8928,
      "katil": 8929,
      "randy": 8930,
      "still": 8931,
      "stick": 8932,
      "taliban": 8933,
      "zulam": 8934,
      "sajis": 8935,
      "krrhe": 8936,
      "khamba": 8937,
      "sultan": 8938,
      "mantari": 8939,
      "mantry": 8940,
      "##llllllll": 8941,
      "profit": 8942,
      "--------------------------------": 8943,
      "facebook_corpus_msr_4": 8944,
      "ktni": 8945,
      "phantom": 8946,
      "spelling": 8947,
      "kaaran": 8948,
      "totally": 8949,
      "sehwag": 8950,
      "##issue": 8951,
      "aajayega": 8952,
      "munh": 8953,
      "leave": 8954,
      "ladies": 8955,
      "strict": 8956,
      "dallal": 8957,
      "afridi": 8958,
      "bhagwaatanki": 8959,
      "aalam": 8960,
      "aarahi": 8961,
      "haregi": 8962,
      "msg": 8963,
      "mumkin": 8964,
      "##bandhan": 8965,
      "##6461": 8966,
      "paresan": 8967,
      "bevkuf": 8968,
      "bevkoof": 8969,
      "bewaqoof": 8970,
      "students": 8971,
      "bhedbhav": 8972,
      "jehadiyo": 8973,
      "murderer": 8974,
      "pichwade": 8975,
      "pichwada": 8976,
      "jhagda": 8977,
      "cnbc": 8978,
      "called": 8979,
      "ukhaad": 8980,
      "vyap": 8981,
      "pratik": 8982,
      "accept": 8983,
      "accepte": 8984,
      "nikammi": 8985,
      "##****************": 8986,
      "mansikta": 8987,
      "knowledge": 8988,
      "natiza": 8989,
      "tanashahi": 8990,
      "uchal": 8991,
      "democracy": 8992,
      "##gence": 8993,
      "maakan": 8994,
      "maakichut": 8995,
      "layek": 8996,
      "manege": 8997,
      "plzzz": 8998,
      "rip_sol": 8999,
      "files": 9000,
      "93000": 9001,
      "londa": 9002,
      "zeada": 9003,
      "ziyada": 9004,
      "hooro": 9005,
      "saurabh": 9006,
      "raghu": 9007,
      "chaurahe": 9008,
      "istarah": 9009,
      "different": 9010,
      "relative": 9011,
      "vivah": 9012,
      "surksha": 9013,
      "allaha": 9014,
      "gujraat": 9015,
      "communist": 9016,
      "narendar": 9017,
      "triple": 9018,
      "employee": 9019,
      "facilities": 9020,
      "\u0000\u0000\u0000\u0000\u0000\u0000\u0000\u0000\u0000\u0000\u0000\u0000\u0000\u0000\u0000\u0000\u0000\u0000\u0000\u0000\u0000\u0000\u0000\u0000\u0000\u0000\u0000\u0000\u0000\u0000\u0000\u0000\u0000\u0000\u0000\u0000\u0000\u0000\u0000\u0000\u0000\u0000\u0000\u0000\u0000\u0000\u0000\u0000\u0000\u0000\u0000\u0000\u0000\u0000\u0000\u0000\u0000\u0000\u0000\u0000\u0000\u0000\u0000\u0000\u0000\u0000\u0000\u0000\u0000\u0000\u0000\u0000\u0000\u0000\u0000\u0000\u0000\u0000\u0000\u0000\u0000\u0000\u0000\u0000\u0000\u0000\u0000\u0000\u0000\u0000\u0000\u0000\u0000\u0000\u0000\u0000\u0000": 9021,
      "=========================": 9022,
      "arif": 9023,
      "byaba": 9024,
      "dirty": 9025,
      "drive": 9026,
      "ncp": 9027,
      "shyd": 9028,
      "uzair": 9029,
      "korea": 9030,
      "destroy": 9031,
      "rashid": 9032,
      "league": 9033,
      "suhag": 9034,
      "aggarwal": 9035,
      "positive": 9036,
      "harkate": 9037,
      "telecast": 9038,
      "teacher": 9039,
      "deposit": 9040,
      "demonitisation": 9041,
      "099933": 9042,
      "ahankaar": 9043,
      "custom": 9044,
      "festival": 9045,
      "jgah": 9046,
      "owner": 9047,
      "rendians": 9048,
      "where": 9049,
      "yatra": 9050,
      "zayda": 9051,
      "zalimana": 9052,
      "karnataka": 9053,
      "delivery": 9054,
      "##indianmedia": 9055,
      "appeal": 9056,
      "helicopter": 9057,
      "benefits": 9058,
      "##gijx": 9059,
      "samachar": 9060,
      "washroom": 9061,
      "columns": 9062,
      "vidhayak": 9063,
      "dahej": 9064,
      "property": 9065,
      "building": 9066,
      "sympathy": 9067,
      "vikaas": 9068,
      "jameen": 9069,
      "frustr": 9070,
      "congrats": 9071,
      "mehfil": 9072,
      "brahmin": 9073,
      "vasundra": 9074,
      "civilians": 9075,
      "simranjeet": 9076,
      "ibrahim": 9077,
      "0b2js": 9078,
      "3talak": 9079,
      "aqal": 9080,
      "caste": 9081,
      "candidate": 9082,
      "cancel": 9083,
      "europe": 9084,
      "glucose": 9085,
      "granted": 9086,
      "hritik": 9087,
      "koshis": 9088,
      "hokumta": 9089,
      "karyalai": 9090,
      "bagair": 9091,
      "injured": 9092,
      "parampara": 9093,
      "suicide": 9094,
      "##00ljgijx": 9095,
      "janlokpal": 9096,
      "reason": 9097,
      "aggression": 9098,
      "confidence": 9099,
      "nivedan": 9100,
      "actually": 9101,
      "newspaper": 9102,
      "performance": 9103,
      "abhishek": 9104,
      "naisadak": 9105,
      "electricity": 9106,
      "powerpoint": 9107,
      "bycottindianmedia": 9108,
      "love_letter": 9109,
      "withdrawal": 9110,
      "intelligence": 9111,
      "##33351": 9112,
      "fadnavis": 9113,
      "rip_soldiers": 9114,
      "09993333351": 9115,
      "0b2js00ljgijx": 9116,
      "\u0000\u0000\u0000\u0000\u0000\u0000\u0000\u0000\u0000\u0000\u0000\u0000\u0000\u0000\u0000\u0000\u0000\u0000\u0000\u0000\u0000\u0000\u0000\u0000\u0000\u0000\u0000\u0000\u0000\u0000\u0000\u0000\u0000\u0000\u0000\u0000\u0000\u0000\u0000\u0000\u0000\u0000\u0000\u0000\u0000\u0000\u0000\u0000\u0000\u0000\u0000\u0000\u0000\u0000\u0000\u0000\u0000\u0000\u0000\u0000\u0000\u0000\u0000\u0000\u0000\u0000\u0000\u0000\u0000\u0000\u0000\u0000\u0000\u0000\u0000\u0000\u0000\u0000\u0000\u0000\u0000\u0000\u0000\u0000\u0000\u0000\u0000\u0000\u0000\u0000\u0000\u0000\u0000\u0000\u0000\u0000\u0000\u0000\u0000\u0000\u0000\u0000\u0000\u0000\u0000\u0000\u0000\u0000\u0000\u0000\u0000\u0000\u0000\u0000\u0000\u0000\u0000\u0000\u0000\u0000\u0000\u0000\u0000\u0000\u0000\u0000\u0000\u0000\u0000\u0000\u0000\u0000\u0000\u0000\u0000\u0000\u0000\u0000\u0000\u0000\u0000\u0000\u0000\u0000\u0000\u0000\u0000\u0000\u0000\u0000\u0000\u0000\u0000\u0000\u0000\u0000\u0000\u0000\u0000\u0000\u0000": 9117,
      "*****": 9118,
      "--": 9119,
      ".@": 9120,
      ".,,": 9121,
      "01": 9122,
      "040": 9123,
      "144": 9124,
      "28": 9125,
      "2⃣": 9126,
      "243": 9127,
      "31": 9128,
      "32": 9129,
      "33": 9130,
      "3sal": 9131,
      "370": 9132,
      "48": 9133,
      "4000": 9134,
      "450": 9135,
      "64": 9136,
      "7th": 9137,
      "780": 9138,
      "7inch": 9139,
      "81": 9140,
      "820": 9141,
      "9th": 9142,
      "992": 9143,
      "_cha": 9144,
      "aga": 9145,
      "ale": 9146,
      "aari": 9147,
      "aji": 9148,
      "ato": 9149,
      "aaise": 9150,
      "azi": 9151,
      "aham": 9152,
      "bm": 9153,
      "bf": 9154,
      "bum": 9155,
      "ber": 9156,
      "bni": 9157,
      "blog": 9158,
      "bgh": 9159,
      "bumb": 9160,
      "cra": 9161,
      "cab": 9162,
      "clo": 9163,
      "cment": 9164,
      "cpe": 9165,
      "cry": 9166,
      "cood": 9167,
      "cpm": 9168,
      "cause": 9169,
      "dd": 9170,
      "dc": 9171,
      "dj": 9172,
      "dw": 9173,
      "dana": 9174,
      "dake": 9175,
      "dhat": 9176,
      "dress": 9177,
      "dutt": 9178,
      "eent": 9179,
      "eek": 9180,
      "eint": 9181,
      "fdi": 9182,
      "fis": 9183,
      "gath": 9184,
      "ged": 9185,
      "gil": 9186,
      "ghad": 9187,
      "gori": 9188,
      "gsl": 9189,
      "gvt": 9190,
      "garaj": 9191,
      "hh": 9192,
      "hk": 9193,
      "h9": 9194,
      "hur": 9195,
      "hurm": 9196,
[...]
